#pragma once
#include <cstddef>
#include <cstdint>


#ifndef ALIGNED
#if WIN32
#define ALIGNED(x)      alignas((x))
#else
#define ALIGNED(x)      __attribute__((aligned((x))))
#endif
#endif

namespace model_nn {


static const ALIGNED(4) uint8_t model_data0[] =
{
0x1c, 0x00, 0x00, 0x00, 0x54, 0x46, 0x4c, 0x33, 0x14, 0x00, 0x20, 0x00, 0x1c, 0x00, 0x18, 0x00, 0x14, 0x00, 0x10, 0x00, 0x0c, 0x00, 0x00, 0x00, 0x08, 0x00, 0x04, 0x00, 0x14, 0x00, 0x00, 0x00, 
0x1c, 0x00, 0x00, 0x00, 0xa4, 0x00, 0x00, 0x00, 0xfc, 0x00, 0x00, 0x00, 0xf8, 0x05, 0x00, 0x00, 0x08, 0x06, 0x00, 0x00, 0xb4, 0x2e, 0x00, 0x00, 0x03, 0x00, 0x00, 0x00, 0x01, 0x00, 0x00, 0x00, 
0x04, 0x00, 0x00, 0x00, 0x12, 0xf3, 0xff, 0xff, 0x0c, 0x00, 0x00, 0x00, 0x1c, 0x00, 0x00, 0x00, 0x3c, 0x00, 0x00, 0x00, 0x0f, 0x00, 0x00, 0x00, 0x73, 0x65, 0x72, 0x76, 0x69, 0x6e, 0x67, 0x5f, 
0x64, 0x65, 0x66, 0x61, 0x75, 0x6c, 0x74, 0x00, 0x01, 0x00, 0x00, 0x00, 0x04, 0x00, 0x00, 0x00, 0x78, 0xff, 0xff, 0xff, 0x40, 0x00, 0x00, 0x00, 0x04, 0x00, 0x00, 0x00, 0x08, 0x00, 0x00, 0x00, 
0x6f, 0x75, 0x74, 0x70, 0x75, 0x74, 0x5f, 0x30, 0x00, 0x00, 0x00, 0x00, 0x02, 0x00, 0x00, 0x00, 0x24, 0x00, 0x00, 0x00, 0x04, 0x00, 0x00, 0x00, 0xa0, 0xff, 0xff, 0xff, 0x01, 0x00, 0x00, 0x00, 
0x04, 0x00, 0x00, 0x00, 0x08, 0x00, 0x00, 0x00, 0x61, 0x72, 0x67, 0x73, 0x5f, 0x30, 0x5f, 0x31, 0x00, 0x00, 0x00, 0x00, 0x6a, 0xf4, 0xff, 0xff, 0x04, 0x00, 0x00, 0x00, 0x06, 0x00, 0x00, 0x00, 
0x61, 0x72, 0x67, 0x73, 0x5f, 0x30, 0x00, 0x00, 0x02, 0x00, 0x00, 0x00, 0x34, 0x00, 0x00, 0x00, 0x04, 0x00, 0x00, 0x00, 0xdc, 0xff, 0xff, 0xff, 0x43, 0x00, 0x00, 0x00, 0x04, 0x00, 0x00, 0x00, 
0x13, 0x00, 0x00, 0x00, 0x43, 0x4f, 0x4e, 0x56, 0x45, 0x52, 0x53, 0x49, 0x4f, 0x4e, 0x5f, 0x4d, 0x45, 0x54, 0x41, 0x44, 0x41, 0x54, 0x41, 0x00, 0x08, 0x00, 0x0c, 0x00, 0x08, 0x00, 0x04, 0x00, 
0x08, 0x00, 0x00, 0x00, 0x42, 0x00, 0x00, 0x00, 0x04, 0x00, 0x00, 0x00, 0x13, 0x00, 0x00, 0x00, 0x6d, 0x69, 0x6e, 0x5f, 0x72, 0x75, 0x6e, 0x74, 0x69, 0x6d, 0x65, 0x5f, 0x76, 0x65, 0x72, 0x73, 
0x69, 0x6f, 0x6e, 0x00, 0x44, 0x00, 0x00, 0x00, 0xf8, 0x04, 0x00, 0x00, 0xf0, 0x04, 0x00, 0x00, 0xe8, 0x04, 0x00, 0x00, 0xc8, 0x04, 0x00, 0x00, 0xa8, 0x04, 0x00, 0x00, 0x88, 0x04, 0x00, 0x00, 
0x68, 0x04, 0x00, 0x00, 0x4c, 0x04, 0x00, 0x00, 0x38, 0x04, 0x00, 0x00, 0x1c, 0x04, 0x00, 0x00, 0x04, 0x04, 0x00, 0x00, 0xec, 0x03, 0x00, 0x00, 0xcc, 0x03, 0x00, 0x00, 0xac, 0x03, 0x00, 0x00, 
0x90, 0x03, 0x00, 0x00, 0x78, 0x03, 0x00, 0x00, 0x58, 0x03, 0x00, 0x00, 0x40, 0x03, 0x00, 0x00, 0x24, 0x03, 0x00, 0x00, 0xd4, 0x02, 0x00, 0x00, 0x84, 0x02, 0x00, 0x00, 0x34, 0x02, 0x00, 0x00, 
0xe4, 0x01, 0x00, 0x00, 0xdc, 0x01, 0x00, 0x00, 0xd4, 0x01, 0x00, 0x00, 0xcc, 0x01, 0x00, 0x00, 0xc4, 0x01, 0x00, 0x00, 0xbc, 0x01, 0x00, 0x00, 0xb4, 0x01, 0x00, 0x00, 0xac, 0x01, 0x00, 0x00, 
0xa4, 0x01, 0x00, 0x00, 0x9c, 0x01, 0x00, 0x00, 0x94, 0x01, 0x00, 0x00, 0x8c, 0x01, 0x00, 0x00, 0x84, 0x01, 0x00, 0x00, 0x7c, 0x01, 0x00, 0x00, 0x74, 0x01, 0x00, 0x00, 0x6c, 0x01, 0x00, 0x00, 
0x64, 0x01, 0x00, 0x00, 0x5c, 0x01, 0x00, 0x00, 0x54, 0x01, 0x00, 0x00, 0x4c, 0x01, 0x00, 0x00, 0x44, 0x01, 0x00, 0x00, 0x3c, 0x01, 0x00, 0x00, 0x34, 0x01, 0x00, 0x00, 0x2c, 0x01, 0x00, 0x00, 
0x24, 0x01, 0x00, 0x00, 0x1c, 0x01, 0x00, 0x00, 0x14, 0x01, 0x00, 0x00, 0x0c, 0x01, 0x00, 0x00, 0x04, 0x01, 0x00, 0x00, 0xfc, 0x00, 0x00, 0x00, 0xf4, 0x00, 0x00, 0x00, 0xec, 0x00, 0x00, 0x00, 
0xe4, 0x00, 0x00, 0x00, 0xdc, 0x00, 0x00, 0x00, 0xd4, 0x00, 0x00, 0x00, 0xcc, 0x00, 0x00, 0x00, 0xc4, 0x00, 0x00, 0x00, 0xbc, 0x00, 0x00, 0x00, 0xb4, 0x00, 0x00, 0x00, 0xac, 0x00, 0x00, 0x00, 
0xa4, 0x00, 0x00, 0x00, 0x9c, 0x00, 0x00, 0x00, 0x94, 0x00, 0x00, 0x00, 0x8c, 0x00, 0x00, 0x00, 0x6c, 0x00, 0x00, 0x00, 0x04, 0x00, 0x00, 0x00, 0xee, 0xf5, 0xff, 0xff, 0x04, 0x00, 0x00, 0x00, 
0x58, 0x00, 0x00, 0x00, 0x0c, 0x00, 0x00, 0x00, 0x08, 0x00, 0x0e, 0x00, 0x08, 0x00, 0x04, 0x00, 0x08, 0x00, 0x00, 0x00, 0x10, 0x00, 0x00, 0x00, 0x28, 0x00, 0x00, 0x00, 0x00, 0x00, 0x06, 0x00, 
0x08, 0x00, 0x04, 0x00, 0x06, 0x00, 0x00, 0x00, 0x04, 0x00, 0x00, 0x00, 0x01, 0x00, 0x00, 0x00, 0xeb, 0x03, 0x00, 0x00, 0x00, 0x00, 0x0a, 0x00, 0x10, 0x00, 0x0c, 0x00, 0x08, 0x00, 0x04, 0x00, 
0x0a, 0x00, 0x00, 0x00, 0x01, 0x00, 0x00, 0x00, 0x02, 0x00, 0x00, 0x00, 0x04, 0x00, 0x00, 0x00, 0x06, 0x00, 0x00, 0x00, 0x32, 0x2e, 0x31, 0x33, 0x2e, 0x30, 0x00, 0x00, 0x52, 0xf6, 0xff, 0xff, 
0x04, 0x00, 0x00, 0x00, 0x10, 0x00, 0x00, 0x00, 0x31, 0x2e, 0x31, 0x34, 0x2e, 0x30, 0x00, 0x00, 0x00, 0x00, 0x00, 0x00, 0x00, 0x00, 0x00, 0x00, 0x10, 0xd5, 0xff, 0xff, 0x14, 0xd5, 0xff, 0xff, 
0x18, 0xd5, 0xff, 0xff, 0x1c, 0xd5, 0xff, 0xff, 0x20, 0xd5, 0xff, 0xff, 0x24, 0xd5, 0xff, 0xff, 0x28, 0xd5, 0xff, 0xff, 0x2c, 0xd5, 0xff, 0xff, 0x30, 0xd5, 0xff, 0xff, 0x34, 0xd5, 0xff, 0xff, 
0x38, 0xd5, 0xff, 0xff, 0x3c, 0xd5, 0xff, 0xff, 0x40, 0xd5, 0xff, 0xff, 0x44, 0xd5, 0xff, 0xff, 0x48, 0xd5, 0xff, 0xff, 0x4c, 0xd5, 0xff, 0xff, 0x50, 0xd5, 0xff, 0xff, 0x54, 0xd5, 0xff, 0xff, 
0x58, 0xd5, 0xff, 0xff, 0x5c, 0xd5, 0xff, 0xff, 0x60, 0xd5, 0xff, 0xff, 0x64, 0xd5, 0xff, 0xff, 0x68, 0xd5, 0xff, 0xff, 0x6c, 0xd5, 0xff, 0xff, 0x70, 0xd5, 0xff, 0xff, 0x74, 0xd5, 0xff, 0xff, 
0x78, 0xd5, 0xff, 0xff, 0x7c, 0xd5, 0xff, 0xff, 0x80, 0xd5, 0xff, 0xff, 0x84, 0xd5, 0xff, 0xff, 0x88, 0xd5, 0xff, 0xff, 0x8c, 0xd5, 0xff, 0xff, 0x90, 0xd5, 0xff, 0xff, 0x94, 0xd5, 0xff, 0xff, 
0x98, 0xd5, 0xff, 0xff, 0x9c, 0xd5, 0xff, 0xff, 0xa0, 0xd5, 0xff, 0xff, 0xa4, 0xd5, 0xff, 0xff, 0xa8, 0xd5, 0xff, 0xff, 0xac, 0xd5, 0xff, 0xff, 0xb0, 0xd5, 0xff, 0xff, 0xb4, 0xd5, 0xff, 0xff, 
0xb8, 0xd5, 0xff, 0xff, 0x1a, 0xf7, 0xff, 0xff, 0x04, 0x00, 0x00, 0x00, 0x40, 0x00, 0x00, 0x00, 0x25, 0x17, 0xda, 0x98, 0xc8, 0x22, 0xe9, 0xec, 0xda, 0xa9, 0xf7, 0x4d, 0x5e, 0x94, 0x71, 0x1e, 
0x6e, 0xf8, 0xbd, 0xa5, 0x58, 0x15, 0xe5, 0x6a, 0x9a, 0x1d, 0xc7, 0xd6, 0xcc, 0xcb, 0xe0, 0x77, 0xbf, 0xde, 0x8e, 0x9c, 0xce, 0x73, 0xe2, 0xcd, 0x8b, 0xb7, 0x7f, 0x54, 0x48, 0x05, 0x85, 0x0f, 
0x3d, 0x7f, 0x06, 0xc9, 0xbd, 0x46, 0x97, 0x01, 0x05, 0xcf, 0xea, 0xd5, 0x45, 0x57, 0xa6, 0xa1, 0x66, 0xf7, 0xff, 0xff, 0x04, 0x00, 0x00, 0x00, 0x40, 0x00, 0x00, 0x00, 0x55, 0x0c, 0xcd, 0xf1, 
0xfe, 0x68, 0xbd, 0xd0, 0x50, 0xaa, 0xc8, 0x8f, 0xf3, 0x42, 0x83, 0x9d, 0x8a, 0x4b, 0x08, 0xbe, 0xc0, 0xcc, 0x98, 0x81, 0x71, 0xe7, 0x22, 0x00, 0xed, 0xa5, 0x55, 0x4f, 0x6b, 0xeb, 0x48, 0x68, 
0x26, 0xc6, 0x5f, 0x95, 0xb6, 0x68, 0x00, 0xb8, 0xf5, 0x61, 0x5d, 0x9a, 0x02, 0xb7, 0x6e, 0x7f, 0x4d, 0x15, 0x0a, 0x92, 0xd4, 0x61, 0xaf, 0x3b, 0xb3, 0x1d, 0xcb, 0xce, 0xb2, 0xf7, 0xff, 0xff, 
0x04, 0x00, 0x00, 0x00, 0x40, 0x00, 0x00, 0x00, 0xbc, 0xee, 0x7c, 0xd8, 0x17, 0xf6, 0xd2, 0x4b, 0x5a, 0x92, 0xc0, 0x6f, 0x98, 0x56, 0xbd, 0x55, 0x8b, 0x29, 0xd9, 0x07, 0x81, 0x61, 0x02, 0x23, 
0x6e, 0xb5, 0x92, 0xd9, 0x84, 0x30, 0xe2, 0x0d, 0x4a, 0x8d, 0x54, 0x3c, 0x15, 0x8b, 0xaf, 0xdc, 0x31, 0x0a, 0xa9, 0x62, 0xf4, 0xce, 0x1f, 0x0b, 0xf5, 0xe2, 0x9b, 0x93, 0xd4, 0xb0, 0xdc, 0x04, 
0x88, 0x03, 0x6e, 0xf7, 0x8d, 0xbf, 0x31, 0x7f, 0xfe, 0xf7, 0xff, 0xff, 0x04, 0x00, 0x00, 0x00, 0x40, 0x00, 0x00, 0x00, 0xd0, 0x72, 0x83, 0x28, 0x72, 0x1f, 0xf4, 0xe1, 0x70, 0xa2, 0x58, 0xdb, 
0x31, 0x21, 0x2b, 0x2f, 0xd2, 0xba, 0x40, 0xcf, 0x19, 0x32, 0xf0, 0x75, 0xf7, 0xb8, 0xec, 0xa4, 0xb1, 0xff, 0xc3, 0xe2, 0xdd, 0x23, 0xf9, 0x71, 0xb6, 0x24, 0x24, 0xd4, 0x00, 0x56, 0xe0, 0x3f, 
0xc2, 0xb5, 0x7f, 0x2e, 0x7f, 0xc4, 0xe7, 0xed, 0x6d, 0xa3, 0x5e, 0x7a, 0xc1, 0x6a, 0x83, 0xa4, 0xd8, 0x55, 0xb2, 0xf3, 0x4a, 0xf8, 0xff, 0xff, 0x04, 0x00, 0x00, 0x00, 0x0c, 0x00, 0x00, 0x00, 
0x01, 0x00, 0x00, 0x00, 0x08, 0x00, 0x00, 0x00, 0x10, 0x00, 0x00, 0x00, 0x62, 0xf8, 0xff, 0xff, 0x04, 0x00, 0x00, 0x00, 0x08, 0x00, 0x00, 0x00, 0x08, 0x00, 0x00, 0x00, 0x04, 0x00, 0x00, 0x00, 
0x76, 0xf8, 0xff, 0xff, 0x04, 0x00, 0x00, 0x00, 0x10, 0x00, 0x00, 0x00, 0x01, 0x00, 0x00, 0x00, 0x02, 0x00, 0x00, 0x00, 0x08, 0x00, 0x00, 0x00, 0x02, 0x00, 0x00, 0x00, 0x92, 0xf8, 0xff, 0xff, 
0x04, 0x00, 0x00, 0x00, 0x08, 0x00, 0x00, 0x00, 0x04, 0x00, 0x00, 0x00, 0x02, 0x00, 0x00, 0x00, 0xa6, 0xf8, 0xff, 0xff, 0x04, 0x00, 0x00, 0x00, 0x0c, 0x00, 0x00, 0x00, 0x02, 0x00, 0x00, 0x00, 
0x08, 0x00, 0x00, 0x00, 0x04, 0x00, 0x00, 0x00, 0xbe, 0xf8, 0xff, 0xff, 0x04, 0x00, 0x00, 0x00, 0x10, 0x00, 0x00, 0x00, 0x00, 0x00, 0x00, 0x00, 0x01, 0x00, 0x00, 0x00, 0x03, 0x00, 0x00, 0x00, 
0x02, 0x00, 0x00, 0x00, 0xda, 0xf8, 0xff, 0xff, 0x04, 0x00, 0x00, 0x00, 0x10, 0x00, 0x00, 0x00, 0x01, 0x00, 0x00, 0x00, 0x02, 0x00, 0x00, 0x00, 0x04, 0x00, 0x00, 0x00, 0x08, 0x00, 0x00, 0x00, 
0xf6, 0xf8, 0xff, 0xff, 0x04, 0x00, 0x00, 0x00, 0x08, 0x00, 0x00, 0x00, 0x01, 0x00, 0x00, 0x00, 0x00, 0x00, 0x00, 0x00, 0x0a, 0xf9, 0xff, 0xff, 0x04, 0x00, 0x00, 0x00, 0x08, 0x00, 0x00, 0x00, 
0x02, 0x00, 0x00, 0x00, 0x08, 0x00, 0x00, 0x00, 0x1e, 0xf9, 0xff, 0xff, 0x04, 0x00, 0x00, 0x00, 0x0c, 0x00, 0x00, 0x00, 0x02, 0x00, 0x00, 0x00, 0x02, 0x00, 0x00, 0x00, 0x08, 0x00, 0x00, 0x00, 
0x36, 0xf9, 0xff, 0xff, 0x04, 0x00, 0x00, 0x00, 0x04, 0x00, 0x00, 0x00, 0x00, 0x00, 0x00, 0x00, 0x46, 0xf9, 0xff, 0xff, 0x04, 0x00, 0x00, 0x00, 0x0c, 0x00, 0x00, 0x00, 0x02, 0x00, 0x00, 0x00, 
0x04, 0x00, 0x00, 0x00, 0x02, 0x00, 0x00, 0x00, 0x5e, 0xf9, 0xff, 0xff, 0x04, 0x00, 0x00, 0x00, 0x10, 0x00, 0x00, 0x00, 0x00, 0x00, 0x00, 0x00, 0x02, 0x00, 0x00, 0x00, 0x03, 0x00, 0x00, 0x00, 
0x01, 0x00, 0x00, 0x00, 0x7a, 0xf9, 0xff, 0xff, 0x04, 0x00, 0x00, 0x00, 0x10, 0x00, 0x00, 0x00, 0x00, 0x00, 0x00, 0x00, 0x02, 0x00, 0x00, 0x00, 0x01, 0x00, 0x00, 0x00, 0x03, 0x00, 0x00, 0x00, 
0x96, 0xf9, 0xff, 0xff, 0x04, 0x00, 0x00, 0x00, 0x10, 0x00, 0x00, 0x00, 0x01, 0x00, 0x00, 0x00, 0x08, 0x00, 0x00, 0x00, 0x02, 0x00, 0x00, 0x00, 0x02, 0x00, 0x00, 0x00, 0xb2, 0xf9, 0xff, 0xff, 
0x04, 0x00, 0x00, 0x00, 0x10, 0x00, 0x00, 0x00, 0x01, 0x00, 0x00, 0x00, 0x04, 0x00, 0x00, 0x00, 0x02, 0x00, 0x00, 0x00, 0x02, 0x00, 0x00, 0x00, 0x70, 0xd8, 0xff, 0xff, 0x74, 0xd8, 0xff, 0xff, 
0x78, 0xd8, 0xff, 0xff, 0x0f, 0x00, 0x00, 0x00, 0x4d, 0x4c, 0x49, 0x52, 0x20, 0x43, 0x6f, 0x6e, 0x76, 0x65, 0x72, 0x74, 0x65, 0x64, 0x2e, 0x00, 0x01, 0x00, 0x00, 0x00, 0x14, 0x00, 0x00, 0x00, 
0x00, 0x00, 0x0e, 0x00, 0x18, 0x00, 0x14, 0x00, 0x10, 0x00, 0x0c, 0x00, 0x08, 0x00, 0x04, 0x00, 0x0e, 0x00, 0x00, 0x00, 0x14, 0x00, 0x00, 0x00, 0x1c, 0x00, 0x00, 0x00, 0x44, 0x07, 0x00, 0x00, 
0x48, 0x07, 0x00, 0x00, 0x50, 0x07, 0x00, 0x00, 0x04, 0x00, 0x00, 0x00, 0x6d, 0x61, 0x69, 0x6e, 0x00, 0x00, 0x00, 0x00, 0x27, 0x00, 0x00, 0x00, 0xf8, 0x06, 0x00, 0x00, 0xc0, 0x06, 0x00, 0x00, 
0x80, 0x06, 0x00, 0x00, 0x58, 0x06, 0x00, 0x00, 0x30, 0x06, 0x00, 0x00, 0x08, 0x06, 0x00, 0x00, 0xe0, 0x05, 0x00, 0x00, 0x9c, 0x05, 0x00, 0x00, 0x64, 0x05, 0x00, 0x00, 0x28, 0x05, 0x00, 0x00, 
0x00, 0x05, 0x00, 0x00, 0xd8, 0x04, 0x00, 0x00, 0xb0, 0x04, 0x00, 0x00, 0x7c, 0x04, 0x00, 0x00, 0x54, 0x04, 0x00, 0x00, 0x20, 0x04, 0x00, 0x00, 0xe8, 0x03, 0x00, 0x00, 0xc0, 0x03, 0x00, 0x00, 
0x98, 0x03, 0x00, 0x00, 0x64, 0x03, 0x00, 0x00, 0x30, 0x03, 0x00, 0x00, 0x08, 0x03, 0x00, 0x00, 0xe0, 0x02, 0x00, 0x00, 0xb8, 0x02, 0x00, 0x00, 0x7c, 0x02, 0x00, 0x00, 0x54, 0x02, 0x00, 0x00, 
0x18, 0x02, 0x00, 0x00, 0xf0, 0x01, 0x00, 0x00, 0xc8, 0x01, 0x00, 0x00, 0xa0, 0x01, 0x00, 0x00, 0x6c, 0x01, 0x00, 0x00, 0x44, 0x01, 0x00, 0x00, 0x10, 0x01, 0x00, 0x00, 0xd8, 0x00, 0x00, 0x00, 
0xb0, 0x00, 0x00, 0x00, 0x88, 0x00, 0x00, 0x00, 0x60, 0x00, 0x00, 0x00, 0x2c, 0x00, 0x00, 0x00, 0x04, 0x00, 0x00, 0x00, 0xe2, 0xf9, 0xff, 0xff, 0x0c, 0x00, 0x00, 0x00, 0x10, 0x00, 0x00, 0x00, 
0x01, 0x00, 0x00, 0x00, 0x01, 0x00, 0x00, 0x00, 0x40, 0x00, 0x00, 0x00, 0x02, 0x00, 0x00, 0x00, 0x3f, 0x00, 0x00, 0x00, 0x11, 0x00, 0x00, 0x00, 0xd6, 0xf9, 0xff, 0xff, 0x10, 0x00, 0x00, 0x00, 
0x00, 0x00, 0x00, 0x08, 0x0c, 0x00, 0x00, 0x00, 0x10, 0x00, 0x00, 0x00, 0xa4, 0xd9, 0xff, 0xff, 0x01, 0x00, 0x00, 0x00, 0x3f, 0x00, 0x00, 0x00, 0x03, 0x00, 0x00, 0x00, 0x3e, 0x00, 0x00, 0x00, 
0x12, 0x00, 0x00, 0x00, 0xff, 0xff, 0xff, 0xff, 0x36, 0xfa, 0xff, 0xff, 0x0c, 0x00, 0x00, 0x00, 0x10, 0x00, 0x00, 0x00, 0x01, 0x00, 0x00, 0x00, 0x01, 0x00, 0x00, 0x00, 0x3e, 0x00, 0x00, 0x00, 
0x02, 0x00, 0x00, 0x00, 0x3d, 0x00, 0x00, 0x00, 0x10, 0x00, 0x00, 0x00, 0x5a, 0xfa, 0xff, 0xff, 0x0c, 0x00, 0x00, 0x00, 0x10, 0x00, 0x00, 0x00, 0x02, 0x00, 0x00, 0x00, 0x01, 0x00, 0x00, 0x00, 
0x3d, 0x00, 0x00, 0x00, 0x02, 0x00, 0x00, 0x00, 0x3c, 0x00, 0x00, 0x00, 0x04, 0x00, 0x00, 0x00, 0x7e, 0xfa, 0xff, 0xff, 0x0c, 0x00, 0x00, 0x00, 0x10, 0x00, 0x00, 0x00, 0x01, 0x00, 0x00, 0x00, 
0x01, 0x00, 0x00, 0x00, 0x3c, 0x00, 0x00, 0x00, 0x02, 0x00, 0x00, 0x00, 0x3b, 0x00, 0x00, 0x00, 0x0f, 0x00, 0x00, 0x00, 0xb2, 0xfb, 0xff, 0xff, 0x14, 0x00, 0x00, 0x00, 0x00, 0x00, 0x00, 0x3b, 
0x14, 0x00, 0x00, 0x00, 0x18, 0x00, 0x00, 0x00, 0x04, 0x00, 0x00, 0x00, 0xa2, 0xfb, 0xff, 0xff, 0x02, 0x00, 0x00, 0x00, 0x01, 0x00, 0x00, 0x00, 0x3b, 0x00, 0x00, 0x00, 0x02, 0x00, 0x00, 0x00, 
0x38, 0x00, 0x00, 0x00, 0x3a, 0x00, 0x00, 0x00, 0xa6, 0xfa, 0xff, 0xff, 0x10, 0x00, 0x00, 0x00, 0x00, 0x00, 0x00, 0x08, 0x0c, 0x00, 0x00, 0x00, 0x10, 0x00, 0x00, 0x00, 0x74, 0xda, 0xff, 0xff, 
0x01, 0x00, 0x00, 0x00, 0x3a, 0x00, 0x00, 0x00, 0x03, 0x00, 0x00, 0x00, 0x31, 0x00, 0x00, 0x00, 0x39, 0x00, 0x00, 0x00, 0xff, 0xff, 0xff, 0xff, 0x06, 0xfb, 0xff, 0xff, 0x0c, 0x00, 0x00, 0x00, 
0x10, 0x00, 0x00, 0x00, 0x02, 0x00, 0x00, 0x00, 0x01, 0x00, 0x00, 0x00, 0x39, 0x00, 0x00, 0x00, 0x02, 0x00, 0x00, 0x00, 0x36, 0x00, 0x00, 0x00, 0x0a, 0x00, 0x00, 0x00, 0xfa, 0xfa, 0xff, 0xff, 
0x10, 0x00, 0x00, 0x00, 0x00, 0x00, 0x00, 0x08, 0x0c, 0x00, 0x00, 0x00, 0x10, 0x00, 0x00, 0x00, 0xc8, 0xda, 0xff, 0xff, 0x01, 0x00, 0x00, 0x00, 0x38, 0x00, 0x00, 0x00, 0x03, 0x00, 0x00, 0x00, 
0x30, 0x00, 0x00, 0x00, 0x37, 0x00, 0x00, 0x00, 0xff, 0xff, 0xff, 0xff, 0x5a, 0xfb, 0xff, 0xff, 0x0c, 0x00, 0x00, 0x00, 0x10, 0x00, 0x00, 0x00, 0x02, 0x00, 0x00, 0x00, 0x01, 0x00, 0x00, 0x00, 
0x37, 0x00, 0x00, 0x00, 0x02, 0x00, 0x00, 0x00, 0x35, 0x00, 0x00, 0x00, 0x0a, 0x00, 0x00, 0x00, 0x7e, 0xfb, 0xff, 0xff, 0x0c, 0x00, 0x00, 0x00, 0x10, 0x00, 0x00, 0x00, 0x01, 0x00, 0x00, 0x00, 
0x01, 0x00, 0x00, 0x00, 0x36, 0x00, 0x00, 0x00, 0x02, 0x00, 0x00, 0x00, 0x34, 0x00, 0x00, 0x00, 0x0e, 0x00, 0x00, 0x00, 0xa2, 0xfb, 0xff, 0xff, 0x0c, 0x00, 0x00, 0x00, 0x10, 0x00, 0x00, 0x00, 
0x01, 0x00, 0x00, 0x00, 0x01, 0x00, 0x00, 0x00, 0x35, 0x00, 0x00, 0x00, 0x02, 0x00, 0x00, 0x00, 0x33, 0x00, 0x00, 0x00, 0x0e, 0x00, 0x00, 0x00, 0xd6, 0xfc, 0xff, 0xff, 0x14, 0x00, 0x00, 0x00, 
0x00, 0x00, 0x00, 0x23, 0x14, 0x00, 0x00, 0x00, 0x1c, 0x00, 0x00, 0x00, 0x03, 0x00, 0x00, 0x00, 0xc6, 0xfc, 0xff, 0xff, 0x02, 0x00, 0x00, 0x00, 0x02, 0x00, 0x00, 0x00, 0x33, 0x00, 0x00, 0x00, 
0x34, 0x00, 0x00, 0x00, 0x02, 0x00, 0x00, 0x00, 0x07, 0x00, 0x00, 0x00, 0x32, 0x00, 0x00, 0x00, 0xfe, 0xfb, 0xff, 0xff, 0x0c, 0x00, 0x00, 0x00, 0x10, 0x00, 0x00, 0x00, 0x01, 0x00, 0x00, 0x00, 
0x01, 0x00, 0x00, 0x00, 0x32, 0x00, 0x00, 0x00, 0x02, 0x00, 0x00, 0x00, 0x2e, 0x00, 0x00, 0x00, 0x06, 0x00, 0x00, 0x00, 0x32, 0xfd, 0xff, 0xff, 0x14, 0x00, 0x00, 0x00, 0x00, 0x00, 0x00, 0x23, 
0x14, 0x00, 0x00, 0x00, 0x1c, 0x00, 0x00, 0x00, 0x03, 0x00, 0x00, 0x00, 0x22, 0xfd, 0xff, 0xff, 0x02, 0x00, 0x00, 0x00, 0x02, 0x00, 0x00, 0x00, 0x30, 0x00, 0x00, 0x00, 0x31, 0x00, 0x00, 0x00, 
0x02, 0x00, 0x00, 0x00, 0x07, 0x00, 0x00, 0x00, 0x2f, 0x00, 0x00, 0x00, 0x5a, 0xfc, 0xff, 0xff, 0x0c, 0x00, 0x00, 0x00, 0x10, 0x00, 0x00, 0x00, 0x01, 0x00, 0x00, 0x00, 0x01, 0x00, 0x00, 0x00, 
0x2f, 0x00, 0x00, 0x00, 0x02, 0x00, 0x00, 0x00, 0x2b, 0x00, 0x00, 0x00, 0x0d, 0x00, 0x00, 0x00, 0x7e, 0xfc, 0xff, 0xff, 0x0c, 0x00, 0x00, 0x00, 0x10, 0x00, 0x00, 0x00, 0x02, 0x00, 0x00, 0x00, 
0x01, 0x00, 0x00, 0x00, 0x2e, 0x00, 0x00, 0x00, 0x02, 0x00, 0x00, 0x00, 0x2d, 0x00, 0x00, 0x00, 0x04, 0x00, 0x00, 0x00, 0xa2, 0xfc, 0xff, 0xff, 0x0c, 0x00, 0x00, 0x00, 0x10, 0x00, 0x00, 0x00, 
0x01, 0x00, 0x00, 0x00, 0x01, 0x00, 0x00, 0x00, 0x2d, 0x00, 0x00, 0x00, 0x02, 0x00, 0x00, 0x00, 0x2c, 0x00, 0x00, 0x00, 0x02, 0x00, 0x00, 0x00, 0x96, 0xfc, 0xff, 0xff, 0x10, 0x00, 0x00, 0x00, 
0x00, 0x00, 0x00, 0x08, 0x0c, 0x00, 0x00, 0x00, 0x10, 0x00, 0x00, 0x00, 0x64, 0xdc, 0xff, 0xff, 0x01, 0x00, 0x00, 0x00, 0x2c, 0x00, 0x00, 0x00, 0x03, 0x00, 0x00, 0x00, 0x01, 0x00, 0x00, 0x00, 
0x13, 0x00, 0x00, 0x00, 0xff, 0xff, 0xff, 0xff, 0x06, 0xfe, 0xff, 0xff, 0x14, 0x00, 0x00, 0x00, 0x00, 0x00, 0x00, 0x09, 0x14, 0x00, 0x00, 0x00, 0x18, 0x00, 0x00, 0x00, 0x05, 0x00, 0x00, 0x00, 
0xf6, 0xfd, 0xff, 0xff, 0x00, 0x00, 0x80, 0x3f, 0x01, 0x00, 0x00, 0x00, 0x2b, 0x00, 0x00, 0x00, 0x01, 0x00, 0x00, 0x00, 0x2a, 0x00, 0x00, 0x00, 0x26, 0xfd, 0xff, 0xff, 0x0c, 0x00, 0x00, 0x00, 
0x10, 0x00, 0x00, 0x00, 0x02, 0x00, 0x00, 0x00, 0x01, 0x00, 0x00, 0x00, 0x2a, 0x00, 0x00, 0x00, 0x02, 0x00, 0x00, 0x00, 0x29, 0x00, 0x00, 0x00, 0x0c, 0x00, 0x00, 0x00, 0x4a, 0xfd, 0xff, 0xff, 
0x0c, 0x00, 0x00, 0x00, 0x10, 0x00, 0x00, 0x00, 0x01, 0x00, 0x00, 0x00, 0x01, 0x00, 0x00, 0x00, 0x29, 0x00, 0x00, 0x00, 0x02, 0x00, 0x00, 0x00, 0x28, 0x00, 0x00, 0x00, 0x0b, 0x00, 0x00, 0x00, 
0x7e, 0xfe, 0xff, 0xff, 0x14, 0x00, 0x00, 0x00, 0x00, 0x00, 0x00, 0x3b, 0x14, 0x00, 0x00, 0x00, 0x18, 0x00, 0x00, 0x00, 0x04, 0x00, 0x00, 0x00, 0x6e, 0xfe, 0xff, 0xff, 0x02, 0x00, 0x00, 0x00, 
0x01, 0x00, 0x00, 0x00, 0x28, 0x00, 0x00, 0x00, 0x02, 0x00, 0x00, 0x00, 0x25, 0x00, 0x00, 0x00, 0x27, 0x00, 0x00, 0x00, 0x72, 0xfd, 0xff, 0xff, 0x10, 0x00, 0x00, 0x00, 0x00, 0x00, 0x00, 0x08, 
0x0c, 0x00, 0x00, 0x00, 0x10, 0x00, 0x00, 0x00, 0x40, 0xdd, 0xff, 0xff, 0x01, 0x00, 0x00, 0x00, 0x27, 0x00, 0x00, 0x00, 0x03, 0x00, 0x00, 0x00, 0x1e, 0x00, 0x00, 0x00, 0x26, 0x00, 0x00, 0x00, 
0xff, 0xff, 0xff, 0xff, 0xd2, 0xfd, 0xff, 0xff, 0x0c, 0x00, 0x00, 0x00, 0x10, 0x00, 0x00, 0x00, 0x02, 0x00, 0x00, 0x00, 0x01, 0x00, 0x00, 0x00, 0x26, 0x00, 0x00, 0x00, 0x02, 0x00, 0x00, 0x00, 
0x23, 0x00, 0x00, 0x00, 0x0a, 0x00, 0x00, 0x00, 0xc6, 0xfd, 0xff, 0xff, 0x10, 0x00, 0x00, 0x00, 0x00, 0x00, 0x00, 0x08, 0x0c, 0x00, 0x00, 0x00, 0x10, 0x00, 0x00, 0x00, 0x94, 0xdd, 0xff, 0xff, 
0x01, 0x00, 0x00, 0x00, 0x25, 0x00, 0x00, 0x00, 0x03, 0x00, 0x00, 0x00, 0x1d, 0x00, 0x00, 0x00, 0x24, 0x00, 0x00, 0x00, 0xff, 0xff, 0xff, 0xff, 0x26, 0xfe, 0xff, 0xff, 0x0c, 0x00, 0x00, 0x00, 
0x10, 0x00, 0x00, 0x00, 0x02, 0x00, 0x00, 0x00, 0x01, 0x00, 0x00, 0x00, 0x24, 0x00, 0x00, 0x00, 0x02, 0x00, 0x00, 0x00, 0x22, 0x00, 0x00, 0x00, 0x0a, 0x00, 0x00, 0x00, 0x4a, 0xfe, 0xff, 0xff, 
0x0c, 0x00, 0x00, 0x00, 0x10, 0x00, 0x00, 0x00, 0x01, 0x00, 0x00, 0x00, 0x01, 0x00, 0x00, 0x00, 0x23, 0x00, 0x00, 0x00, 0x02, 0x00, 0x00, 0x00, 0x21, 0x00, 0x00, 0x00, 0x09, 0x00, 0x00, 0x00, 
0x6e, 0xfe, 0xff, 0xff, 0x0c, 0x00, 0x00, 0x00, 0x10, 0x00, 0x00, 0x00, 0x01, 0x00, 0x00, 0x00, 0x01, 0x00, 0x00, 0x00, 0x22, 0x00, 0x00, 0x00, 0x02, 0x00, 0x00, 0x00, 0x20, 0x00, 0x00, 0x00, 
0x09, 0x00, 0x00, 0x00, 0xa2, 0xff, 0xff, 0xff, 0x14, 0x00, 0x00, 0x00, 0x00, 0x00, 0x00, 0x23, 0x14, 0x00, 0x00, 0x00, 0x1c, 0x00, 0x00, 0x00, 0x03, 0x00, 0x00, 0x00, 0x92, 0xff, 0xff, 0xff, 
0x02, 0x00, 0x00, 0x00, 0x02, 0x00, 0x00, 0x00, 0x20, 0x00, 0x00, 0x00, 0x21, 0x00, 0x00, 0x00, 0x02, 0x00, 0x00, 0x00, 0x07, 0x00, 0x00, 0x00, 0x1f, 0x00, 0x00, 0x00, 0xca, 0xfe, 0xff, 0xff, 
0x0c, 0x00, 0x00, 0x00, 0x10, 0x00, 0x00, 0x00, 0x01, 0x00, 0x00, 0x00, 0x01, 0x00, 0x00, 0x00, 0x1f, 0x00, 0x00, 0x00, 0x02, 0x00, 0x00, 0x00, 0x1b, 0x00, 0x00, 0x00, 0x08, 0x00, 0x00, 0x00, 
0x00, 0x00, 0x0e, 0x00, 0x1a, 0x00, 0x14, 0x00, 0x10, 0x00, 0x0c, 0x00, 0x0b, 0x00, 0x04, 0x00, 0x0e, 0x00, 0x00, 0x00, 0x1c, 0x00, 0x00, 0x00, 0x00, 0x00, 0x00, 0x23, 0x1c, 0x00, 0x00, 0x00, 
0x24, 0x00, 0x00, 0x00, 0x03, 0x00, 0x00, 0x00, 0x00, 0x00, 0x06, 0x00, 0x08, 0x00, 0x04, 0x00, 0x06, 0x00, 0x00, 0x00, 0x02, 0x00, 0x00, 0x00, 0x02, 0x00, 0x00, 0x00, 0x1d, 0x00, 0x00, 0x00, 
0x1e, 0x00, 0x00, 0x00, 0x02, 0x00, 0x00, 0x00, 0x07, 0x00, 0x00, 0x00, 0x1c, 0x00, 0x00, 0x00, 0x3e, 0xff, 0xff, 0xff, 0x0c, 0x00, 0x00, 0x00, 0x10, 0x00, 0x00, 0x00, 0x01, 0x00, 0x00, 0x00, 
0x01, 0x00, 0x00, 0x00, 0x1c, 0x00, 0x00, 0x00, 0x02, 0x00, 0x00, 0x00, 0x1a, 0x00, 0x00, 0x00, 0x06, 0x00, 0x00, 0x00, 0x62, 0xff, 0xff, 0xff, 0x0c, 0x00, 0x00, 0x00, 0x10, 0x00, 0x00, 0x00, 
0x02, 0x00, 0x00, 0x00, 0x01, 0x00, 0x00, 0x00, 0x1b, 0x00, 0x00, 0x00, 0x02, 0x00, 0x00, 0x00, 0x19, 0x00, 0x00, 0x00, 0x05, 0x00, 0x00, 0x00, 0x86, 0xff, 0xff, 0xff, 0x0c, 0x00, 0x00, 0x00, 
0x10, 0x00, 0x00, 0x00, 0x02, 0x00, 0x00, 0x00, 0x01, 0x00, 0x00, 0x00, 0x1a, 0x00, 0x00, 0x00, 0x02, 0x00, 0x00, 0x00, 0x17, 0x00, 0x00, 0x00, 0x04, 0x00, 0x00, 0x00, 0xaa, 0xff, 0xff, 0xff, 
0x0c, 0x00, 0x00, 0x00, 0x10, 0x00, 0x00, 0x00, 0x01, 0x00, 0x00, 0x00, 0x01, 0x00, 0x00, 0x00, 0x19, 0x00, 0x00, 0x00, 0x02, 0x00, 0x00, 0x00, 0x18, 0x00, 0x00, 0x00, 0x03, 0x00, 0x00, 0x00, 
0x9e, 0xff, 0xff, 0xff, 0x10, 0x00, 0x00, 0x00, 0x00, 0x00, 0x00, 0x08, 0x0c, 0x00, 0x00, 0x00, 0x10, 0x00, 0x00, 0x00, 0x6c, 0xdf, 0xff, 0xff, 0x01, 0x00, 0x00, 0x00, 0x18, 0x00, 0x00, 0x00, 
0x03, 0x00, 0x00, 0x00, 0x00, 0x00, 0x00, 0x00, 0x14, 0x00, 0x00, 0x00, 0xff, 0xff, 0xff, 0xff, 0x00, 0x00, 0x0a, 0x00, 0x10, 0x00, 0x0c, 0x00, 0x08, 0x00, 0x04, 0x00, 0x0a, 0x00, 0x00, 0x00, 
0x0c, 0x00, 0x00, 0x00, 0x10, 0x00, 0x00, 0x00, 0x01, 0x00, 0x00, 0x00, 0x01, 0x00, 0x00, 0x00, 0x17, 0x00, 0x00, 0x00, 0x02, 0x00, 0x00, 0x00, 0x16, 0x00, 0x00, 0x00, 0x02, 0x00, 0x00, 0x00, 
0x00, 0x00, 0x0e, 0x00, 0x14, 0x00, 0x00, 0x00, 0x10, 0x00, 0x0c, 0x00, 0x0b, 0x00, 0x04, 0x00, 0x0e, 0x00, 0x00, 0x00, 0x10, 0x00, 0x00, 0x00, 0x00, 0x00, 0x00, 0x08, 0x0c, 0x00, 0x00, 0x00, 
0x10, 0x00, 0x00, 0x00, 0xdc, 0xdf, 0xff, 0xff, 0x01, 0x00, 0x00, 0x00, 0x16, 0x00, 0x00, 0x00, 0x03, 0x00, 0x00, 0x00, 0x01, 0x00, 0x00, 0x00, 0x15, 0x00, 0x00, 0x00, 0xff, 0xff, 0xff, 0xff, 
0x01, 0x00, 0x00, 0x00, 0x40, 0x00, 0x00, 0x00, 0x02, 0x00, 0x00, 0x00, 0x00, 0x00, 0x00, 0x00, 0x01, 0x00, 0x00, 0x00, 0x41, 0x00, 0x00, 0x00, 0xb8, 0x20, 0x00, 0x00, 0x30, 0x20, 0x00, 0x00, 
0xcc, 0x1f, 0x00, 0x00, 0x6c, 0x1f, 0x00, 0x00, 0x10, 0x1f, 0x00, 0x00, 0xb4, 0x1e, 0x00, 0x00, 0x58, 0x1e, 0x00, 0x00, 0x00, 0x1e, 0x00, 0x00, 0xa4, 0x1d, 0x00, 0x00, 0x48, 0x1d, 0x00, 0x00, 
0xec, 0x1c, 0x00, 0x00, 0x90, 0x1c, 0x00, 0x00, 0x34, 0x1c, 0x00, 0x00, 0xd8, 0x1b, 0x00, 0x00, 0x7c, 0x1b, 0x00, 0x00, 0x20, 0x1b, 0x00, 0x00, 0xc4, 0x1a, 0x00, 0x00, 0x58, 0x1a, 0x00, 0x00, 
0xcc, 0x19, 0x00, 0x00, 0x48, 0x19, 0x00, 0x00, 0x84, 0x18, 0x00, 0x00, 0x00, 0x18, 0x00, 0x00, 0x7c, 0x17, 0x00, 0x00, 0xf0, 0x16, 0x00, 0x00, 0x2c, 0x16, 0x00, 0x00, 0x60, 0x15, 0x00, 0x00, 
0xdc, 0x14, 0x00, 0x00, 0x58, 0x14, 0x00, 0x00, 0xd4, 0x13, 0x00, 0x00, 0x28, 0x13, 0x00, 0x00, 0x7c, 0x12, 0x00, 0x00, 0xf8, 0x11, 0x00, 0x00, 0x4c, 0x11, 0x00, 0x00, 0xa0, 0x10, 0x00, 0x00, 
0x24, 0x10, 0x00, 0x00, 0xa8, 0x0f, 0x00, 0x00, 0x2c, 0x0f, 0x00, 0x00, 0xb0, 0x0e, 0x00, 0x00, 0x34, 0x0e, 0x00, 0x00, 0xb8, 0x0d, 0x00, 0x00, 0x34, 0x0d, 0x00, 0x00, 0xb0, 0x0c, 0x00, 0x00, 
0x2c, 0x0c, 0x00, 0x00, 0xa8, 0x0b, 0x00, 0x00, 0x24, 0x0b, 0x00, 0x00, 0x98, 0x0a, 0x00, 0x00, 0x14, 0x0a, 0x00, 0x00, 0x90, 0x09, 0x00, 0x00, 0xe4, 0x08, 0x00, 0x00, 0x30, 0x08, 0x00, 0x00, 
0xac, 0x07, 0x00, 0x00, 0xf8, 0x06, 0x00, 0x00, 0x44, 0x06, 0x00, 0x00, 0xc0, 0x05, 0x00, 0x00, 0x3c, 0x05, 0x00, 0x00, 0xb8, 0x04, 0x00, 0x00, 0x34, 0x04, 0x00, 0x00, 0xb0, 0x03, 0x00, 0x00, 
0x2c, 0x03, 0x00, 0x00, 0xa8, 0x02, 0x00, 0x00, 0x1c, 0x02, 0x00, 0x00, 0x90, 0x01, 0x00, 0x00, 0x04, 0x01, 0x00, 0x00, 0x78, 0x00, 0x00, 0x00, 0x04, 0x00, 0x00, 0x00, 0x62, 0xe0, 0xff, 0xff, 
0x00, 0x00, 0x00, 0x01, 0x14, 0x00, 0x00, 0x00, 0x34, 0x00, 0x00, 0x00, 0x41, 0x00, 0x00, 0x00, 0x00, 0x00, 0x00, 0x09, 0x48, 0x00, 0x00, 0x00, 0x4c, 0xe0, 0xff, 0xff, 0x08, 0x00, 0x00, 0x00, 
0x14, 0x00, 0x00, 0x00, 0x01, 0x00, 0x00, 0x00, 0xfb, 0xff, 0xff, 0xff, 0xff, 0xff, 0xff, 0xff, 0x00, 0x00, 0x00, 0x00, 0x01, 0x00, 0x00, 0x00, 0xc1, 0x9e, 0x3e, 0x3c, 0x19, 0x00, 0x00, 0x00, 
0x53, 0x74, 0x61, 0x74, 0x65, 0x66, 0x75, 0x6c, 0x50, 0x61, 0x72, 0x74, 0x69, 0x74, 0x69, 0x6f, 0x6e, 0x65, 0x64, 0x43, 0x61, 0x6c, 0x6c, 0x3a, 0x30, 0x00, 0x00, 0x00, 0x03, 0x00, 0x00, 0x00, 
0x01, 0x00, 0x00, 0x00, 0x08, 0x00, 0x00, 0x00, 0x10, 0x00, 0x00, 0x00, 0xd2, 0xe0, 0xff, 0xff, 0x00, 0x00, 0x00, 0x01, 0x14, 0x00, 0x00, 0x00, 0x30, 0x00, 0x00, 0x00, 0x40, 0x00, 0x00, 0x00, 
0x00, 0x00, 0x00, 0x09, 0x64, 0x00, 0x00, 0x00, 0xbc, 0xe0, 0xff, 0xff, 0x08, 0x00, 0x00, 0x00, 0x10, 0x00, 0x00, 0x00, 0x01, 0x00, 0x00, 0x00, 0xfb, 0xff, 0xff, 0xff, 0xff, 0xff, 0xff, 0xff, 
0x01, 0x00, 0x00, 0x00, 0xc1, 0x9e, 0x3e, 0x3c, 0x3a, 0x00, 0x00, 0x00, 0x6d, 0x6f, 0x64, 0x65, 0x6c, 0x2f, 0x6d, 0x75, 0x6c, 0x74, 0x69, 0x5f, 0x68, 0x65, 0x61, 0x64, 0x5f, 0x61, 0x74, 0x74, 
0x65, 0x6e, 0x74, 0x69, 0x6f, 0x6e, 0x2f, 0x61, 0x74, 0x74, 0x65, 0x6e, 0x74, 0x69, 0x6f, 0x6e, 0x5f, 0x6f, 0x75, 0x74, 0x70, 0x75, 0x74, 0x2f, 0x65, 0x69, 0x6e, 0x73, 0x75, 0x6d, 0x2f, 0x45, 
0x69, 0x6e, 0x73, 0x75, 0x6d, 0x33, 0x00, 0x00, 0x02, 0x00, 0x00, 0x00, 0x08, 0x00, 0x00, 0x00, 0x10, 0x00, 0x00, 0x00, 0x5a, 0xe1, 0xff, 0xff, 0x00, 0x00, 0x00, 0x01, 0x14, 0x00, 0x00, 0x00, 
0x30, 0x00, 0x00, 0x00, 0x3f, 0x00, 0x00, 0x00, 0x00, 0x00, 0x00, 0x09, 0x64, 0x00, 0x00, 0x00, 0x44, 0xe1, 0xff, 0xff, 0x08, 0x00, 0x00, 0x00, 0x10, 0x00, 0x00, 0x00, 0x01, 0x00, 0x00, 0x00, 
0xfa, 0xff, 0xff, 0xff, 0xff, 0xff, 0xff, 0xff, 0x01, 0x00, 0x00, 0x00, 0x71, 0xe3, 0xc7, 0x3c, 0x3a, 0x00, 0x00, 0x00, 0x6d, 0x6f, 0x64, 0x65, 0x6c, 0x2f, 0x6d, 0x75, 0x6c, 0x74, 0x69, 0x5f, 
0x68, 0x65, 0x61, 0x64, 0x5f, 0x61, 0x74, 0x74, 0x65, 0x6e, 0x74, 0x69, 0x6f, 0x6e, 0x2f, 0x61, 0x74, 0x74, 0x65, 0x6e, 0x74, 0x69, 0x6f, 0x6e, 0x5f, 0x6f, 0x75, 0x74, 0x70, 0x75, 0x74, 0x2f, 
0x65, 0x69, 0x6e, 0x73, 0x75, 0x6d, 0x2f, 0x45, 0x69, 0x6e, 0x73, 0x75, 0x6d, 0x32, 0x00, 0x00, 0x02, 0x00, 0x00, 0x00, 0x08, 0x00, 0x00, 0x00, 0x04, 0x00, 0x00, 0x00, 0xe2, 0xe1, 0xff, 0xff, 
0x00, 0x00, 0x00, 0x01, 0x14, 0x00, 0x00, 0x00, 0x34, 0x00, 0x00, 0x00, 0x3e, 0x00, 0x00, 0x00, 0x00, 0x00, 0x00, 0x09, 0x5c, 0x00, 0x00, 0x00, 0xcc, 0xe1, 0xff, 0xff, 0x08, 0x00, 0x00, 0x00, 
0x14, 0x00, 0x00, 0x00, 0x01, 0x00, 0x00, 0x00, 0xfa, 0xff, 0xff, 0xff, 0xff, 0xff, 0xff, 0xff, 0x00, 0x00, 0x00, 0x00, 0x01, 0x00, 0x00, 0x00, 0x71, 0xe3, 0xc7, 0x3c, 0x2c, 0x00, 0x00, 0x00, 
0x6d, 0x6f, 0x64, 0x65, 0x6c, 0x2f, 0x6d, 0x75, 0x6c, 0x74, 0x69, 0x5f, 0x68, 0x65, 0x61, 0x64, 0x5f, 0x61, 0x74, 0x74, 0x65, 0x6e, 0x74, 0x69, 0x6f, 0x6e, 0x2f, 0x65, 0x69, 0x6e, 0x73, 0x75, 
0x6d, 0x5f, 0x31, 0x2f, 0x45, 0x69, 0x6e, 0x73, 0x75, 0x6d, 0x32, 0x31, 0x00, 0x00, 0x00, 0x00, 0x04, 0x00, 0x00, 0x00, 0x01, 0x00, 0x00, 0x00, 0x08, 0x00, 0x00, 0x00, 0x02, 0x00, 0x00, 0x00, 
0x02, 0x00, 0x00, 0x00, 0x6a, 0xe2, 0xff, 0xff, 0x00, 0x00, 0x00, 0x01, 0x14, 0x00, 0x00, 0x00, 0x34, 0x00, 0x00, 0x00, 0x3d, 0x00, 0x00, 0x00, 0x00, 0x00, 0x00, 0x09, 0x5c, 0x00, 0x00, 0x00, 
0x54, 0xe2, 0xff, 0xff, 0x08, 0x00, 0x00, 0x00, 0x14, 0x00, 0x00, 0x00, 0x01, 0x00, 0x00, 0x00, 0xfa, 0xff, 0xff, 0xff, 0xff, 0xff, 0xff, 0xff, 0x00, 0x00, 0x00, 0x00, 0x01, 0x00, 0x00, 0x00, 
0x71, 0xe3, 0xc7, 0x3c, 0x2c, 0x00, 0x00, 0x00, 0x6d, 0x6f, 0x64, 0x65, 0x6c, 0x2f, 0x6d, 0x75, 0x6c, 0x74, 0x69, 0x5f, 0x68, 0x65, 0x61, 0x64, 0x5f, 0x61, 0x74, 0x74, 0x65, 0x6e, 0x74, 0x69, 
0x6f, 0x6e, 0x2f, 0x65, 0x69, 0x6e, 0x73, 0x75, 0x6d, 0x5f, 0x31, 0x2f, 0x45, 0x69, 0x6e, 0x73, 0x75, 0x6d, 0x32, 0x30, 0x00, 0x00, 0x00, 0x00, 0x04, 0x00, 0x00, 0x00, 0x01, 0x00, 0x00, 0x00, 
0x02, 0x00, 0x00, 0x00, 0x08, 0x00, 0x00, 0x00, 0x02, 0x00, 0x00, 0x00, 0xf2, 0xe2, 0xff, 0xff, 0x00, 0x00, 0x00, 0x01, 0x14, 0x00, 0x00, 0x00, 0x30, 0x00, 0x00, 0x00, 0x3c, 0x00, 0x00, 0x00, 
0x00, 0x00, 0x00, 0x09, 0x58, 0x00, 0x00, 0x00, 0xdc, 0xe2, 0xff, 0xff, 0x08, 0x00, 0x00, 0x00, 0x10, 0x00, 0x00, 0x00, 0x01, 0x00, 0x00, 0x00, 0xfa, 0xff, 0xff, 0xff, 0xff, 0xff, 0xff, 0xff, 
0x01, 0x00, 0x00, 0x00, 0x71, 0xe3, 0xc7, 0x3c, 0x2c, 0x00, 0x00, 0x00, 0x6d, 0x6f, 0x64, 0x65, 0x6c, 0x2f, 0x6d, 0x75, 0x6c, 0x74, 0x69, 0x5f, 0x68, 0x65, 0x61, 0x64, 0x5f, 0x61, 0x74, 0x74, 
0x65, 0x6e, 0x74, 0x69, 0x6f, 0x6e, 0x2f, 0x65, 0x69, 0x6e, 0x73, 0x75, 0x6d, 0x5f, 0x31, 0x2f, 0x45, 0x69, 0x6e, 0x73, 0x75, 0x6d, 0x31, 0x39, 0x00, 0x00, 0x00, 0x00, 0x03, 0x00, 0x00, 0x00, 
0x02, 0x00, 0x00, 0x00, 0x08, 0x00, 0x00, 0x00, 0x02, 0x00, 0x00, 0x00, 0x72, 0xe3, 0xff, 0xff, 0x00, 0x00, 0x00, 0x01, 0x14, 0x00, 0x00, 0x00, 0x34, 0x00, 0x00, 0x00, 0x3b, 0x00, 0x00, 0x00, 
0x00, 0x00, 0x00, 0x09, 0x5c, 0x00, 0x00, 0x00, 0x5c, 0xe3, 0xff, 0xff, 0x08, 0x00, 0x00, 0x00, 0x14, 0x00, 0x00, 0x00, 0x01, 0x00, 0x00, 0x00, 0xfa, 0xff, 0xff, 0xff, 0xff, 0xff, 0xff, 0xff, 
0x00, 0x00, 0x00, 0x00, 0x01, 0x00, 0x00, 0x00, 0x71, 0xe3, 0xc7, 0x3c, 0x2c, 0x00, 0x00, 0x00, 0x6d, 0x6f, 0x64, 0x65, 0x6c, 0x2f, 0x6d, 0x75, 0x6c, 0x74, 0x69, 0x5f, 0x68, 0x65, 0x61, 0x64, 
0x5f, 0x61, 0x74, 0x74, 0x65, 0x6e, 0x74, 0x69, 0x6f, 0x6e, 0x2f, 0x65, 0x69, 0x6e, 0x73, 0x75, 0x6d, 0x5f, 0x31, 0x2f, 0x45, 0x69, 0x6e, 0x73, 0x75, 0x6d, 0x31, 0x38, 0x00, 0x00, 0x00, 0x00, 
0x02, 0x00, 0x00, 0x00, 0x08, 0x00, 0x00, 0x00, 0x02, 0x00, 0x00, 0x00, 0xf2, 0xe3, 0xff, 0xff, 0x00, 0x00, 0x00, 0x01, 0x14, 0x00, 0x00, 0x00, 0x34, 0x00, 0x00, 0x00, 0x3a, 0x00, 0x00, 0x00, 
0x00, 0x00, 0x00, 0x09, 0x5c, 0x00, 0x00, 0x00, 0xdc, 0xe3, 0xff, 0xff, 0x08, 0x00, 0x00, 0x00, 0x14, 0x00, 0x00, 0x00, 0x01, 0x00, 0x00, 0x00, 0xf6, 0xff, 0xff, 0xff, 0xff, 0xff, 0xff, 0xff, 
0x00, 0x00, 0x00, 0x00, 0x01, 0x00, 0x00, 0x00, 0xf5, 0xac, 0xf0, 0x3c, 0x2c, 0x00, 0x00, 0x00, 0x6d, 0x6f, 0x64, 0x65, 0x6c, 0x2f, 0x6d, 0x75, 0x6c, 0x74, 0x69, 0x5f, 0x68, 0x65, 0x61, 0x64, 
0x5f, 0x61, 0x74, 0x74, 0x65, 0x6e, 0x74, 0x69, 0x6f, 0x6e, 0x2f, 0x65, 0x69, 0x6e, 0x73, 0x75, 0x6d, 0x5f, 0x31, 0x2f, 0x45, 0x69, 0x6e, 0x73, 0x75, 0x6d, 0x31, 0x37, 0x00, 0x00, 0x00, 0x00, 
0x02, 0x00, 0x00, 0x00, 0x02, 0x00, 0x00, 0x00, 0x04, 0x00, 0x00, 0x00, 0x72, 0xe4, 0xff, 0xff, 0x00, 0x00, 0x00, 0x01, 0x14, 0x00, 0x00, 0x00, 0x34, 0x00, 0x00, 0x00, 0x39, 0x00, 0x00, 0x00, 
0x00, 0x00, 0x00, 0x09, 0x5c, 0x00, 0x00, 0x00, 0x5c, 0xe4, 0xff, 0xff, 0x08, 0x00, 0x00, 0x00, 0x14, 0x00, 0x00, 0x00, 0x01, 0x00, 0x00, 0x00, 0xfa, 0xff, 0xff, 0xff, 0xff, 0xff, 0xff, 0xff, 
0x00, 0x00, 0x00, 0x00, 0x01, 0x00, 0x00, 0x00, 0x71, 0xe3, 0xc7, 0x3c, 0x2c, 0x00, 0x00, 0x00, 0x6d, 0x6f, 0x64, 0x65, 0x6c, 0x2f, 0x6d, 0x75, 0x6c, 0x74, 0x69, 0x5f, 0x68, 0x65, 0x61, 0x64, 
0x5f, 0x61, 0x74, 0x74, 0x65, 0x6e, 0x74, 0x69, 0x6f, 0x6e, 0x2f, 0x65, 0x69, 0x6e, 0x73, 0x75, 0x6d, 0x5f, 0x31, 0x2f, 0x45, 0x69, 0x6e, 0x73, 0x75, 0x6d, 0x31, 0x36, 0x00, 0x00, 0x00, 0x00, 
0x02, 0x00, 0x00, 0x00, 0x08, 0x00, 0x00, 0x00, 0x02, 0x00, 0x00, 0x00, 0xf2, 0xe4, 0xff, 0xff, 0x00, 0x00, 0x00, 0x01, 0x14, 0x00, 0x00, 0x00, 0x34, 0x00, 0x00, 0x00, 0x38, 0x00, 0x00, 0x00, 
0x00, 0x00, 0x00, 0x09, 0x5c, 0x00, 0x00, 0x00, 0xdc, 0xe4, 0xff, 0xff, 0x08, 0x00, 0x00, 0x00, 0x14, 0x00, 0x00, 0x00, 0x01, 0x00, 0x00, 0x00, 0xf6, 0xff, 0xff, 0xff, 0xff, 0xff, 0xff, 0xff, 
0x00, 0x00, 0x00, 0x00, 0x01, 0x00, 0x00, 0x00, 0xf5, 0xac, 0xf0, 0x3c, 0x2c, 0x00, 0x00, 0x00, 0x6d, 0x6f, 0x64, 0x65, 0x6c, 0x2f, 0x6d, 0x75, 0x6c, 0x74, 0x69, 0x5f, 0x68, 0x65, 0x61, 0x64, 
0x5f, 0x61, 0x74, 0x74, 0x65, 0x6e, 0x74, 0x69, 0x6f, 0x6e, 0x2f, 0x65, 0x69, 0x6e, 0x73, 0x75, 0x6d, 0x5f, 0x31, 0x2f, 0x45, 0x69, 0x6e, 0x73, 0x75, 0x6d, 0x31, 0x35, 0x00, 0x00, 0x00, 0x00, 
0x02, 0x00, 0x00, 0x00, 0x02, 0x00, 0x00, 0x00, 0x04, 0x00, 0x00, 0x00, 0x72, 0xe5, 0xff, 0xff, 0x00, 0x00, 0x00, 0x01, 0x14, 0x00, 0x00, 0x00, 0x34, 0x00, 0x00, 0x00, 0x37, 0x00, 0x00, 0x00, 
0x00, 0x00, 0x00, 0x09, 0x5c, 0x00, 0x00, 0x00, 0x5c, 0xe5, 0xff, 0xff, 0x08, 0x00, 0x00, 0x00, 0x14, 0x00, 0x00, 0x00, 0x01, 0x00, 0x00, 0x00, 0xf6, 0xff, 0xff, 0xff, 0xff, 0xff, 0xff, 0xff, 
0x00, 0x00, 0x00, 0x00, 0x01, 0x00, 0x00, 0x00, 0xf5, 0xac, 0xf0, 0x3c, 0x2c, 0x00, 0x00, 0x00, 0x6d, 0x6f, 0x64, 0x65, 0x6c, 0x2f, 0x6d, 0x75, 0x6c, 0x74, 0x69, 0x5f, 0x68, 0x65, 0x61, 0x64, 
0x5f, 0x61, 0x74, 0x74, 0x65, 0x6e, 0x74, 0x69, 0x6f, 0x6e, 0x2f, 0x65, 0x69, 0x6e, 0x73, 0x75, 0x6d, 0x5f, 0x31, 0x2f, 0x45, 0x69, 0x6e, 0x73, 0x75, 0x6d, 0x31, 0x34, 0x00, 0x00, 0x00, 0x00, 
0x02, 0x00, 0x00, 0x00, 0x04, 0x00, 0x00, 0x00, 0x02, 0x00, 0x00, 0x00, 0xf2, 0xe5, 0xff, 0xff, 0x00, 0x00, 0x00, 0x01, 0x14, 0x00, 0x00, 0x00, 0x34, 0x00, 0x00, 0x00, 0x36, 0x00, 0x00, 0x00, 
0x00, 0x00, 0x00, 0x09, 0x5c, 0x00, 0x00, 0x00, 0xdc, 0xe5, 0xff, 0xff, 0x08, 0x00, 0x00, 0x00, 0x14, 0x00, 0x00, 0x00, 0x01, 0x00, 0x00, 0x00, 0xf6, 0xff, 0xff, 0xff, 0xff, 0xff, 0xff, 0xff, 
0x00, 0x00, 0x00, 0x00, 0x01, 0x00, 0x00, 0x00, 0xf5, 0xac, 0xf0, 0x3c, 0x2c, 0x00, 0x00, 0x00, 0x6d, 0x6f, 0x64, 0x65, 0x6c, 0x2f, 0x6d, 0x75, 0x6c, 0x74, 0x69, 0x5f, 0x68, 0x65, 0x61, 0x64, 
0x5f, 0x61, 0x74, 0x74, 0x65, 0x6e, 0x74, 0x69, 0x6f, 0x6e, 0x2f, 0x65, 0x69, 0x6e, 0x73, 0x75, 0x6d, 0x5f, 0x31, 0x2f, 0x45, 0x69, 0x6e, 0x73, 0x75, 0x6d, 0x31, 0x33, 0x00, 0x00, 0x00, 0x00, 
0x02, 0x00, 0x00, 0x00, 0x04, 0x00, 0x00, 0x00, 0x02, 0x00, 0x00, 0x00, 0x72, 0xe6, 0xff, 0xff, 0x00, 0x00, 0x00, 0x01, 0x14, 0x00, 0x00, 0x00, 0x34, 0x00, 0x00, 0x00, 0x35, 0x00, 0x00, 0x00, 
0x00, 0x00, 0x00, 0x09, 0x88, 0x00, 0x00, 0x00, 0x5c, 0xe6, 0xff, 0xff, 0x08, 0x00, 0x00, 0x00, 0x14, 0x00, 0x00, 0x00, 0x01, 0x00, 0x00, 0x00, 0xf6, 0xff, 0xff, 0xff, 0xff, 0xff, 0xff, 0xff, 
0x00, 0x00, 0x00, 0x00, 0x01, 0x00, 0x00, 0x00, 0xf5, 0xac, 0xf0, 0x3c, 0x5a, 0x00, 0x00, 0x00, 0x6d, 0x6f, 0x64, 0x65, 0x6c, 0x2f, 0x6d, 0x75, 0x6c, 0x74, 0x69, 0x5f, 0x68, 0x65, 0x61, 0x64, 
0x5f, 0x61, 0x74, 0x74, 0x65, 0x6e, 0x74, 0x69, 0x6f, 0x6e, 0x2f, 0x65, 0x69, 0x6e, 0x73, 0x75, 0x6d, 0x5f, 0x31, 0x2f, 0x45, 0x69, 0x6e, 0x73, 0x75, 0x6d, 0x31, 0x31, 0x3b, 0x6d, 0x6f, 0x64, 
0x65, 0x6c, 0x2f, 0x6d, 0x75, 0x6c, 0x74, 0x69, 0x5f, 0x68, 0x65, 0x61, 0x64, 0x5f, 0x61, 0x74, 0x74, 0x65, 0x6e, 0x74, 0x69, 0x6f, 0x6e, 0x2f, 0x65, 0x69, 0x6e, 0x73, 0x75, 0x6d, 0x5f, 0x31, 
0x2f, 0x45, 0x69, 0x6e, 0x73, 0x75, 0x6d, 0x31, 0x32, 0x31, 0x00, 0x00, 0x03, 0x00, 0x00, 0x00, 0x01, 0x00, 0x00, 0x00, 0x04, 0x00, 0x00, 0x00, 0x02, 0x00, 0x00, 0x00, 0x22, 0xe7, 0xff, 0xff, 
0x00, 0x00, 0x00, 0x01, 0x14, 0x00, 0x00, 0x00, 0x34, 0x00, 0x00, 0x00, 0x34, 0x00, 0x00, 0x00, 0x00, 0x00, 0x00, 0x09, 0x88, 0x00, 0x00, 0x00, 0x0c, 0xe7, 0xff, 0xff, 0x08, 0x00, 0x00, 0x00, 
0x14, 0x00, 0x00, 0x00, 0x01, 0x00, 0x00, 0x00, 0xf6, 0xff, 0xff, 0xff, 0xff, 0xff, 0xff, 0xff, 0x00, 0x00, 0x00, 0x00, 0x01, 0x00, 0x00, 0x00, 0xf5, 0xac, 0xf0, 0x3c, 0x59, 0x00, 0x00, 0x00, 
0x6d, 0x6f, 0x64, 0x65, 0x6c, 0x2f, 0x6d, 0x75, 0x6c, 0x74, 0x69, 0x5f, 0x68, 0x65, 0x61, 0x64, 0x5f, 0x61, 0x74, 0x74, 0x65, 0x6e, 0x74, 0x69, 0x6f, 0x6e, 0x2f, 0x65, 0x69, 0x6e, 0x73, 0x75, 
0x6d, 0x5f, 0x31, 0x2f, 0x45, 0x69, 0x6e, 0x73, 0x75, 0x6d, 0x31, 0x31, 0x3b, 0x6d, 0x6f, 0x64, 0x65, 0x6c, 0x2f, 0x6d, 0x75, 0x6c, 0x74, 0x69, 0x5f, 0x68, 0x65, 0x61, 0x64, 0x5f, 0x61, 0x74, 
0x74, 0x65, 0x6e, 0x74, 0x69, 0x6f, 0x6e, 0x2f, 0x65, 0x69, 0x6e, 0x73, 0x75, 0x6d, 0x5f, 0x31, 0x2f, 0x45, 0x69, 0x6e, 0x73, 0x75, 0x6d, 0x31, 0x32, 0x00, 0x00, 0x00, 0x03, 0x00, 0x00, 0x00, 
0x01, 0x00, 0x00, 0x00, 0x04, 0x00, 0x00, 0x00, 0x02, 0x00, 0x00, 0x00, 0xd2, 0xe7, 0xff, 0xff, 0x00, 0x00, 0x00, 0x01, 0x14, 0x00, 0x00, 0x00, 0x30, 0x00, 0x00, 0x00, 0x33, 0x00, 0x00, 0x00, 
0x00, 0x00, 0x00, 0x09, 0x58, 0x00, 0x00, 0x00, 0xbc, 0xe7, 0xff, 0xff, 0x08, 0x00, 0x00, 0x00, 0x10, 0x00, 0x00, 0x00, 0x01, 0x00, 0x00, 0x00, 0xf6, 0xff, 0xff, 0xff, 0xff, 0xff, 0xff, 0xff, 
0x01, 0x00, 0x00, 0x00, 0xf5, 0xac, 0xf0, 0x3c, 0x2c, 0x00, 0x00, 0x00, 0x6d, 0x6f, 0x64, 0x65, 0x6c, 0x2f, 0x6d, 0x75, 0x6c, 0x74, 0x69, 0x5f, 0x68, 0x65, 0x61, 0x64, 0x5f, 0x61, 0x74, 0x74, 
0x65, 0x6e, 0x74, 0x69, 0x6f, 0x6e, 0x2f, 0x65, 0x69, 0x6e, 0x73, 0x75, 0x6d, 0x5f, 0x31, 0x2f, 0x45, 0x69, 0x6e, 0x73, 0x75, 0x6d, 0x31, 0x30, 0x00, 0x00, 0x00, 0x00, 0x03, 0x00, 0x00, 0x00, 
0x02, 0x00, 0x00, 0x00, 0x04, 0x00, 0x00, 0x00, 0x02, 0x00, 0x00, 0x00, 0x52, 0xe8, 0xff, 0xff, 0x00, 0x00, 0x00, 0x01, 0x14, 0x00, 0x00, 0x00, 0x34, 0x00, 0x00, 0x00, 0x32, 0x00, 0x00, 0x00, 
0x00, 0x00, 0x00, 0x09, 0x88, 0x00, 0x00, 0x00, 0x3c, 0xe8, 0xff, 0xff, 0x08, 0x00, 0x00, 0x00, 0x14, 0x00, 0x00, 0x00, 0x01, 0x00, 0x00, 0x00, 0x80, 0xff, 0xff, 0xff, 0xff, 0xff, 0xff, 0xff, 
0x00, 0x00, 0x00, 0x00, 0x01, 0x00, 0x00, 0x00, 0x00, 0x00, 0x80, 0x3b, 0x58, 0x00, 0x00, 0x00, 0x6d, 0x6f, 0x64, 0x65, 0x6c, 0x2f, 0x6d, 0x75, 0x6c, 0x74, 0x69, 0x5f, 0x68, 0x65, 0x61, 0x64, 
0x5f, 0x61, 0x74, 0x74, 0x65, 0x6e, 0x74, 0x69, 0x6f, 0x6e, 0x2f, 0x65, 0x69, 0x6e, 0x73, 0x75, 0x6d, 0x5f, 0x31, 0x2f, 0x45, 0x69, 0x6e, 0x73, 0x75, 0x6d, 0x38, 0x3b, 0x6d, 0x6f, 0x64, 0x65, 
0x6c, 0x2f, 0x6d, 0x75, 0x6c, 0x74, 0x69, 0x5f, 0x68, 0x65, 0x61, 0x64, 0x5f, 0x61, 0x74, 0x74, 0x65, 0x6e, 0x74, 0x69, 0x6f, 0x6e, 0x2f, 0x65, 0x69, 0x6e, 0x73, 0x75, 0x6d, 0x5f, 0x31, 0x2f, 
0x45, 0x69, 0x6e, 0x73, 0x75, 0x6d, 0x39, 0x31, 0x00, 0x00, 0x00, 0x00, 0x03, 0x00, 0x00, 0x00, 0x01, 0x00, 0x00, 0x00, 0x08, 0x00, 0x00, 0x00, 0x04, 0x00, 0x00, 0x00, 0x02, 0xe9, 0xff, 0xff, 
0x00, 0x00, 0x00, 0x01, 0x14, 0x00, 0x00, 0x00, 0x30, 0x00, 0x00, 0x00, 0x31, 0x00, 0x00, 0x00, 0x00, 0x00, 0x00, 0x09, 0x80, 0x00, 0x00, 0x00, 0xec, 0xe8, 0xff, 0xff, 0x08, 0x00, 0x00, 0x00, 
0x10, 0x00, 0x00, 0x00, 0x01, 0x00, 0x00, 0x00, 0x80, 0xff, 0xff, 0xff, 0xff, 0xff, 0xff, 0xff, 0x01, 0x00, 0x00, 0x00, 0x00, 0x00, 0x80, 0x3b, 0x57, 0x00, 0x00, 0x00, 0x6d, 0x6f, 0x64, 0x65, 
0x6c, 0x2f, 0x6d, 0x75, 0x6c, 0x74, 0x69, 0x5f, 0x68, 0x65, 0x61, 0x64, 0x5f, 0x61, 0x74, 0x74, 0x65, 0x6e, 0x74, 0x69, 0x6f, 0x6e, 0x2f, 0x65, 0x69, 0x6e, 0x73, 0x75, 0x6d, 0x5f, 0x31, 0x2f, 
0x45, 0x69, 0x6e, 0x73, 0x75, 0x6d, 0x38, 0x3b, 0x6d, 0x6f, 0x64, 0x65, 0x6c, 0x2f, 0x6d, 0x75, 0x6c, 0x74, 0x69, 0x5f, 0x68, 0x65, 0x61, 0x64, 0x5f, 0x61, 0x74, 0x74, 0x65, 0x6e, 0x74, 0x69, 
0x6f, 0x6e, 0x2f, 0x65, 0x69, 0x6e, 0x73, 0x75, 0x6d, 0x5f, 0x31, 0x2f, 0x45, 0x69, 0x6e, 0x73, 0x75, 0x6d, 0x39, 0x00, 0x03, 0x00, 0x00, 0x00, 0x01, 0x00, 0x00, 0x00, 0x08, 0x00, 0x00, 0x00, 
0x04, 0x00, 0x00, 0x00, 0xaa, 0xe9, 0xff, 0xff, 0x00, 0x00, 0x00, 0x01, 0x14, 0x00, 0x00, 0x00, 0x34, 0x00, 0x00, 0x00, 0x30, 0x00, 0x00, 0x00, 0x00, 0x00, 0x00, 0x09, 0x58, 0x00, 0x00, 0x00, 
0x94, 0xe9, 0xff, 0xff, 0x08, 0x00, 0x00, 0x00, 0x14, 0x00, 0x00, 0x00, 0x01, 0x00, 0x00, 0x00, 0x80, 0xff, 0xff, 0xff, 0xff, 0xff, 0xff, 0xff, 0x00, 0x00, 0x00, 0x00, 0x01, 0x00, 0x00, 0x00, 
0x00, 0x00, 0x80, 0x3b, 0x2b, 0x00, 0x00, 0x00, 0x6d, 0x6f, 0x64, 0x65, 0x6c, 0x2f, 0x6d, 0x75, 0x6c, 0x74, 0x69, 0x5f, 0x68, 0x65, 0x61, 0x64, 0x5f, 0x61, 0x74, 0x74, 0x65, 0x6e, 0x74, 0x69, 
0x6f, 0x6e, 0x2f, 0x65, 0x69, 0x6e, 0x73, 0x75, 0x6d, 0x5f, 0x31, 0x2f, 0x45, 0x69, 0x6e, 0x73, 0x75, 0x6d, 0x37, 0x00, 0x03, 0x00, 0x00, 0x00, 0x02, 0x00, 0x00, 0x00, 0x08, 0x00, 0x00, 0x00, 
0x04, 0x00, 0x00, 0x00, 0x2a, 0xea, 0xff, 0xff, 0x00, 0x00, 0x00, 0x01, 0x14, 0x00, 0x00, 0x00, 0x30, 0x00, 0x00, 0x00, 0x2f, 0x00, 0x00, 0x00, 0x00, 0x00, 0x00, 0x09, 0x54, 0x00, 0x00, 0x00, 
0x14, 0xea, 0xff, 0xff, 0x08, 0x00, 0x00, 0x00, 0x10, 0x00, 0x00, 0x00, 0x01, 0x00, 0x00, 0x00, 0xf6, 0xff, 0xff, 0xff, 0xff, 0xff, 0xff, 0xff, 0x01, 0x00, 0x00, 0x00, 0xf5, 0xac, 0xf0, 0x3c, 
0x2b, 0x00, 0x00, 0x00, 0x6d, 0x6f, 0x64, 0x65, 0x6c, 0x2f, 0x6d, 0x75, 0x6c, 0x74, 0x69, 0x5f, 0x68, 0x65, 0x61, 0x64, 0x5f, 0x61, 0x74, 0x74, 0x65, 0x6e, 0x74, 0x69, 0x6f, 0x6e, 0x2f, 0x65, 
0x69, 0x6e, 0x73, 0x75, 0x6d, 0x5f, 0x31, 0x2f, 0x45, 0x69, 0x6e, 0x73, 0x75, 0x6d, 0x36, 0x00, 0x04, 0x00, 0x00, 0x00, 0x01, 0x00, 0x00, 0x00, 0x02, 0x00, 0x00, 0x00, 0x04, 0x00, 0x00, 0x00, 
0x02, 0x00, 0x00, 0x00, 0xaa, 0xea, 0xff, 0xff, 0x00, 0x00, 0x00, 0x01, 0x14, 0x00, 0x00, 0x00, 0x34, 0x00, 0x00, 0x00, 0x2e, 0x00, 0x00, 0x00, 0x00, 0x00, 0x00, 0x09, 0x5c, 0x00, 0x00, 0x00, 
0x94, 0xea, 0xff, 0xff, 0x08, 0x00, 0x00, 0x00, 0x14, 0x00, 0x00, 0x00, 0x01, 0x00, 0x00, 0x00, 0xf6, 0xff, 0xff, 0xff, 0xff, 0xff, 0xff, 0xff, 0x00, 0x00, 0x00, 0x00, 0x01, 0x00, 0x00, 0x00, 
0xf5, 0xac, 0xf0, 0x3c, 0x2f, 0x00, 0x00, 0x00, 0x6d, 0x6f, 0x64, 0x65, 0x6c, 0x2f, 0x6d, 0x75, 0x6c, 0x74, 0x69, 0x5f, 0x68, 0x65, 0x61, 0x64, 0x5f, 0x61, 0x74, 0x74, 0x65, 0x6e, 0x74, 0x69, 
0x6f, 0x6e, 0x2f, 0x76, 0x61, 0x6c, 0x75, 0x65, 0x2f, 0x65, 0x69, 0x6e, 0x73, 0x75, 0x6d, 0x2f, 0x45, 0x69, 0x6e, 0x73, 0x75, 0x6d, 0x32, 0x00, 0x04, 0x00, 0x00, 0x00, 0x01, 0x00, 0x00, 0x00, 
0x04, 0x00, 0x00, 0x00, 0x02, 0x00, 0x00, 0x00, 0x02, 0x00, 0x00, 0x00, 0x32, 0xeb, 0xff, 0xff, 0x00, 0x00, 0x00, 0x01, 0x14, 0x00, 0x00, 0x00, 0x34, 0x00, 0x00, 0x00, 0x2d, 0x00, 0x00, 0x00, 
0x00, 0x00, 0x00, 0x09, 0x5c, 0x00, 0x00, 0x00, 0x1c, 0xeb, 0xff, 0xff, 0x08, 0x00, 0x00, 0x00, 0x14, 0x00, 0x00, 0x00, 0x01, 0x00, 0x00, 0x00, 0xf6, 0xff, 0xff, 0xff, 0xff, 0xff, 0xff, 0xff, 
0x00, 0x00, 0x00, 0x00, 0x01, 0x00, 0x00, 0x00, 0xf5, 0xac, 0xf0, 0x3c, 0x2f, 0x00, 0x00, 0x00, 0x6d, 0x6f, 0x64, 0x65, 0x6c, 0x2f, 0x6d, 0x75, 0x6c, 0x74, 0x69, 0x5f, 0x68, 0x65, 0x61, 0x64, 
0x5f, 0x61, 0x74, 0x74, 0x65, 0x6e, 0x74, 0x69, 0x6f, 0x6e, 0x2f, 0x76, 0x61, 0x6c, 0x75, 0x65, 0x2f, 0x65, 0x69, 0x6e, 0x73, 0x75, 0x6d, 0x2f, 0x45, 0x69, 0x6e, 0x73, 0x75, 0x6d, 0x31, 0x00, 
0x02, 0x00, 0x00, 0x00, 0x04, 0x00, 0x00, 0x00, 0x04, 0x00, 0x00, 0x00, 0xb2, 0xeb, 0xff, 0xff, 0x00, 0x00, 0x00, 0x01, 0x14, 0x00, 0x00, 0x00, 0x30, 0x00, 0x00, 0x00, 0x2c, 0x00, 0x00, 0x00, 
0x00, 0x00, 0x00, 0x09, 0x54, 0x00, 0x00, 0x00, 0x9c, 0xeb, 0xff, 0xff, 0x08, 0x00, 0x00, 0x00, 0x10, 0x00, 0x00, 0x00, 0x01, 0x00, 0x00, 0x00, 0x80, 0xff, 0xff, 0xff, 0xff, 0xff, 0xff, 0xff, 
0x01, 0x00, 0x00, 0x00, 0x00, 0x00, 0x80, 0x3b, 0x2a, 0x00, 0x00, 0x00, 0x6d, 0x6f, 0x64, 0x65, 0x6c, 0x2f, 0x6d, 0x75, 0x6c, 0x74, 0x69, 0x5f, 0x68, 0x65, 0x61, 0x64, 0x5f, 0x61, 0x74, 0x74, 
0x65, 0x6e, 0x74, 0x69, 0x6f, 0x6e, 0x2f, 0x73, 0x6f, 0x66, 0x74, 0x6d, 0x61, 0x78, 0x2f, 0x53, 0x6f, 0x66, 0x74, 0x6d, 0x61, 0x78, 0x00, 0x00, 0x04, 0x00, 0x00, 0x00, 0x01, 0x00, 0x00, 0x00, 
0x02, 0x00, 0x00, 0x00, 0x08, 0x00, 0x00, 0x00, 0x04, 0x00, 0x00, 0x00, 0x32, 0xec, 0xff, 0xff, 0x00, 0x00, 0x00, 0x01, 0x14, 0x00, 0x00, 0x00, 0x30, 0x00, 0x00, 0x00, 0x2b, 0x00, 0x00, 0x00, 
0x00, 0x00, 0x00, 0x09, 0x54, 0x00, 0x00, 0x00, 0x1c, 0xec, 0xff, 0xff, 0x08, 0x00, 0x00, 0x00, 0x10, 0x00, 0x00, 0x00, 0x01, 0x00, 0x00, 0x00, 0x1c, 0x00, 0x00, 0x00, 0x00, 0x00, 0x00, 0x00, 
0x01, 0x00, 0x00, 0x00, 0xf1, 0xbe, 0x32, 0x3d, 0x2a, 0x00, 0x00, 0x00, 0x6d, 0x6f, 0x64, 0x65, 0x6c, 0x2f, 0x6d, 0x75, 0x6c, 0x74, 0x69, 0x5f, 0x68, 0x65, 0x61, 0x64, 0x5f, 0x61, 0x74, 0x74, 
0x65, 0x6e, 0x74, 0x69, 0x6f, 0x6e, 0x2f, 0x65, 0x69, 0x6e, 0x73, 0x75, 0x6d, 0x2f, 0x45, 0x69, 0x6e, 0x73, 0x75, 0x6d, 0x32, 0x33, 0x00, 0x00, 0x04, 0x00, 0x00, 0x00, 0x01, 0x00, 0x00, 0x00, 
0x02, 0x00, 0x00, 0x00, 0x08, 0x00, 0x00, 0x00, 0x04, 0x00, 0x00, 0x00, 0xb2, 0xec, 0xff, 0xff, 0x00, 0x00, 0x00, 0x01, 0x14, 0x00, 0x00, 0x00, 0x30, 0x00, 0x00, 0x00, 0x2a, 0x00, 0x00, 0x00, 
0x00, 0x00, 0x00, 0x09, 0x54, 0x00, 0x00, 0x00, 0x9c, 0xec, 0xff, 0xff, 0x08, 0x00, 0x00, 0x00, 0x10, 0x00, 0x00, 0x00, 0x01, 0x00, 0x00, 0x00, 0x1c, 0x00, 0x00, 0x00, 0x00, 0x00, 0x00, 0x00, 
0x01, 0x00, 0x00, 0x00, 0xf1, 0xbe, 0x32, 0x3d, 0x2a, 0x00, 0x00, 0x00, 0x6d, 0x6f, 0x64, 0x65, 0x6c, 0x2f, 0x6d, 0x75, 0x6c, 0x74, 0x69, 0x5f, 0x68, 0x65, 0x61, 0x64, 0x5f, 0x61, 0x74, 0x74, 
0x65, 0x6e, 0x74, 0x69, 0x6f, 0x6e, 0x2f, 0x65, 0x69, 0x6e, 0x73, 0x75, 0x6d, 0x2f, 0x45, 0x69, 0x6e, 0x73, 0x75, 0x6d, 0x32, 0x32, 0x00, 0x00, 0x04, 0x00, 0x00, 0x00, 0x01, 0x00, 0x00, 0x00, 
0x02, 0x00, 0x00, 0x00, 0x04, 0x00, 0x00, 0x00, 0x08, 0x00, 0x00, 0x00, 0x32, 0xed, 0xff, 0xff, 0x00, 0x00, 0x00, 0x01, 0x14, 0x00, 0x00, 0x00, 0x34, 0x00, 0x00, 0x00, 0x29, 0x00, 0x00, 0x00, 
0x00, 0x00, 0x00, 0x09, 0x58, 0x00, 0x00, 0x00, 0x1c, 0xed, 0xff, 0xff, 0x08, 0x00, 0x00, 0x00, 0x14, 0x00, 0x00, 0x00, 0x01, 0x00, 0x00, 0x00, 0x1c, 0x00, 0x00, 0x00, 0x00, 0x00, 0x00, 0x00, 
0x00, 0x00, 0x00, 0x00, 0x01, 0x00, 0x00, 0x00, 0xf1, 0xbe, 0x32, 0x3d, 0x2a, 0x00, 0x00, 0x00, 0x6d, 0x6f, 0x64, 0x65, 0x6c, 0x2f, 0x6d, 0x75, 0x6c, 0x74, 0x69, 0x5f, 0x68, 0x65, 0x61, 0x64, 
0x5f, 0x61, 0x74, 0x74, 0x65, 0x6e, 0x74, 0x69, 0x6f, 0x6e, 0x2f, 0x65, 0x69, 0x6e, 0x73, 0x75, 0x6d, 0x2f, 0x45, 0x69, 0x6e, 0x73, 0x75, 0x6d, 0x32, 0x31, 0x00, 0x00, 0x03, 0x00, 0x00, 0x00, 
0x02, 0x00, 0x00, 0x00, 0x04, 0x00, 0x00, 0x00, 0x08, 0x00, 0x00, 0x00, 0xb2, 0xed, 0xff, 0xff, 0x00, 0x00, 0x00, 0x01, 0x14, 0x00, 0x00, 0x00, 0x30, 0x00, 0x00, 0x00, 0x28, 0x00, 0x00, 0x00, 
0x00, 0x00, 0x00, 0x09, 0x54, 0x00, 0x00, 0x00, 0x9c, 0xed, 0xff, 0xff, 0x08, 0x00, 0x00, 0x00, 0x10, 0x00, 0x00, 0x00, 0x01, 0x00, 0x00, 0x00, 0x1c, 0x00, 0x00, 0x00, 0x00, 0x00, 0x00, 0x00, 
0x01, 0x00, 0x00, 0x00, 0xf1, 0xbe, 0x32, 0x3d, 0x2a, 0x00, 0x00, 0x00, 0x6d, 0x6f, 0x64, 0x65, 0x6c, 0x2f, 0x6d, 0x75, 0x6c, 0x74, 0x69, 0x5f, 0x68, 0x65, 0x61, 0x64, 0x5f, 0x61, 0x74, 0x74, 
0x65, 0x6e, 0x74, 0x69, 0x6f, 0x6e, 0x2f, 0x65, 0x69, 0x6e, 0x73, 0x75, 0x6d, 0x2f, 0x45, 0x69, 0x6e, 0x73, 0x75, 0x6d, 0x32, 0x30, 0x00, 0x00, 0x02, 0x00, 0x00, 0x00, 0x04, 0x00, 0x00, 0x00, 
0x08, 0x00, 0x00, 0x00, 0x2a, 0xee, 0xff, 0xff, 0x00, 0x00, 0x00, 0x01, 0x14, 0x00, 0x00, 0x00, 0x30, 0x00, 0x00, 0x00, 0x27, 0x00, 0x00, 0x00, 0x00, 0x00, 0x00, 0x09, 0x54, 0x00, 0x00, 0x00, 
0x14, 0xee, 0xff, 0xff, 0x08, 0x00, 0x00, 0x00, 0x10, 0x00, 0x00, 0x00, 0x01, 0x00, 0x00, 0x00, 0xee, 0xff, 0xff, 0xff, 0xff, 0xff, 0xff, 0xff, 0x01, 0x00, 0x00, 0x00, 0xc4, 0x23, 0xba, 0x3c, 
0x2a, 0x00, 0x00, 0x00, 0x6d, 0x6f, 0x64, 0x65, 0x6c, 0x2f, 0x6d, 0x75, 0x6c, 0x74, 0x69, 0x5f, 0x68, 0x65, 0x61, 0x64, 0x5f, 0x61, 0x74, 0x74, 0x65, 0x6e, 0x74, 0x69, 0x6f, 0x6e, 0x2f, 0x65, 
0x69, 0x6e, 0x73, 0x75, 0x6d, 0x2f, 0x45, 0x69, 0x6e, 0x73, 0x75, 0x6d, 0x31, 0x39, 0x00, 0x00, 0x02, 0x00, 0x00, 0x00, 0x08, 0x00, 0x00, 0x00, 0x02, 0x00, 0x00, 0x00, 0xa2, 0xee, 0xff, 0xff, 
0x00, 0x00, 0x00, 0x01, 0x14, 0x00, 0x00, 0x00, 0x30, 0x00, 0x00, 0x00, 0x26, 0x00, 0x00, 0x00, 0x00, 0x00, 0x00, 0x09, 0x54, 0x00, 0x00, 0x00, 0x8c, 0xee, 0xff, 0xff, 0x08, 0x00, 0x00, 0x00, 
0x10, 0x00, 0x00, 0x00, 0x01, 0x00, 0x00, 0x00, 0x1c, 0x00, 0x00, 0x00, 0x00, 0x00, 0x00, 0x00, 0x01, 0x00, 0x00, 0x00, 0xf1, 0xbe, 0x32, 0x3d, 0x2a, 0x00, 0x00, 0x00, 0x6d, 0x6f, 0x64, 0x65, 
0x6c, 0x2f, 0x6d, 0x75, 0x6c, 0x74, 0x69, 0x5f, 0x68, 0x65, 0x61, 0x64, 0x5f, 0x61, 0x74, 0x74, 0x65, 0x6e, 0x74, 0x69, 0x6f, 0x6e, 0x2f, 0x65, 0x69, 0x6e, 0x73, 0x75, 0x6d, 0x2f, 0x45, 0x69, 
0x6e, 0x73, 0x75, 0x6d, 0x31, 0x38, 0x00, 0x00, 0x02, 0x00, 0x00, 0x00, 0x04, 0x00, 0x00, 0x00, 0x08, 0x00, 0x00, 0x00, 0x1a, 0xef, 0xff, 0xff, 0x00, 0x00, 0x00, 0x01, 0x14, 0x00, 0x00, 0x00, 
0x30, 0x00, 0x00, 0x00, 0x25, 0x00, 0x00, 0x00, 0x00, 0x00, 0x00, 0x09, 0x54, 0x00, 0x00, 0x00, 0x04, 0xef, 0xff, 0xff, 0x08, 0x00, 0x00, 0x00, 0x10, 0x00, 0x00, 0x00, 0x01, 0x00, 0x00, 0x00, 
0xee, 0xff, 0xff, 0xff, 0xff, 0xff, 0xff, 0xff, 0x01, 0x00, 0x00, 0x00, 0xc4, 0x23, 0xba, 0x3c, 0x2a, 0x00, 0x00, 0x00, 0x6d, 0x6f, 0x64, 0x65, 0x6c, 0x2f, 0x6d, 0x75, 0x6c, 0x74, 0x69, 0x5f, 
0x68, 0x65, 0x61, 0x64, 0x5f, 0x61, 0x74, 0x74, 0x65, 0x6e, 0x74, 0x69, 0x6f, 0x6e, 0x2f, 0x65, 0x69, 0x6e, 0x73, 0x75, 0x6d, 0x2f, 0x45, 0x69, 0x6e, 0x73, 0x75, 0x6d, 0x31, 0x37, 0x00, 0x00, 
0x02, 0x00, 0x00, 0x00, 0x08, 0x00, 0x00, 0x00, 0x02, 0x00, 0x00, 0x00, 0x92, 0xef, 0xff, 0xff, 0x00, 0x00, 0x00, 0x01, 0x14, 0x00, 0x00, 0x00, 0x30, 0x00, 0x00, 0x00, 0x24, 0x00, 0x00, 0x00, 
0x00, 0x00, 0x00, 0x09, 0x54, 0x00, 0x00, 0x00, 0x7c, 0xef, 0xff, 0xff, 0x08, 0x00, 0x00, 0x00, 0x10, 0x00, 0x00, 0x00, 0x01, 0x00, 0x00, 0x00, 0xee, 0xff, 0xff, 0xff, 0xff, 0xff, 0xff, 0xff, 
0x01, 0x00, 0x00, 0x00, 0xc4, 0x23, 0xba, 0x3c, 0x2a, 0x00, 0x00, 0x00, 0x6d, 0x6f, 0x64, 0x65, 0x6c, 0x2f, 0x6d, 0x75, 0x6c, 0x74, 0x69, 0x5f, 0x68, 0x65, 0x61, 0x64, 0x5f, 0x61, 0x74, 0x74, 
0x65, 0x6e, 0x74, 0x69, 0x6f, 0x6e, 0x2f, 0x65, 0x69, 0x6e, 0x73, 0x75, 0x6d, 0x2f, 0x45, 0x69, 0x6e, 0x73, 0x75, 0x6d, 0x31, 0x36, 0x00, 0x00, 0x02, 0x00, 0x00, 0x00, 0x02, 0x00, 0x00, 0x00, 
0x08, 0x00, 0x00, 0x00, 0x0a, 0xf0, 0xff, 0xff, 0x00, 0x00, 0x00, 0x01, 0x14, 0x00, 0x00, 0x00, 0x30, 0x00, 0x00, 0x00, 0x23, 0x00, 0x00, 0x00, 0x00, 0x00, 0x00, 0x09, 0x54, 0x00, 0x00, 0x00, 
0xf4, 0xef, 0xff, 0xff, 0x08, 0x00, 0x00, 0x00, 0x10, 0x00, 0x00, 0x00, 0x01, 0x00, 0x00, 0x00, 0xee, 0xff, 0xff, 0xff, 0xff, 0xff, 0xff, 0xff, 0x01, 0x00, 0x00, 0x00, 0xc4, 0x23, 0xba, 0x3c, 
0x2a, 0x00, 0x00, 0x00, 0x6d, 0x6f, 0x64, 0x65, 0x6c, 0x2f, 0x6d, 0x75, 0x6c, 0x74, 0x69, 0x5f, 0x68, 0x65, 0x61, 0x64, 0x5f, 0x61, 0x74, 0x74, 0x65, 0x6e, 0x74, 0x69, 0x6f, 0x6e, 0x2f, 0x65, 
0x69, 0x6e, 0x73, 0x75, 0x6d, 0x2f, 0x45, 0x69, 0x6e, 0x73, 0x75, 0x6d, 0x31, 0x35, 0x00, 0x00, 0x02, 0x00, 0x00, 0x00, 0x02, 0x00, 0x00, 0x00, 0x08, 0x00, 0x00, 0x00, 0x82, 0xf0, 0xff, 0xff, 
0x00, 0x00, 0x00, 0x01, 0x14, 0x00, 0x00, 0x00, 0x30, 0x00, 0x00, 0x00, 0x22, 0x00, 0x00, 0x00, 0x00, 0x00, 0x00, 0x09, 0x80, 0x00, 0x00, 0x00, 0x6c, 0xf0, 0xff, 0xff, 0x08, 0x00, 0x00, 0x00, 
0x10, 0x00, 0x00, 0x00, 0x01, 0x00, 0x00, 0x00, 0xee, 0xff, 0xff, 0xff, 0xff, 0xff, 0xff, 0xff, 0x01, 0x00, 0x00, 0x00, 0xc4, 0x23, 0xba, 0x3c, 0x56, 0x00, 0x00, 0x00, 0x6d, 0x6f, 0x64, 0x65, 
0x6c, 0x2f, 0x6d, 0x75, 0x6c, 0x74, 0x69, 0x5f, 0x68, 0x65, 0x61, 0x64, 0x5f, 0x61, 0x74, 0x74, 0x65, 0x6e, 0x74, 0x69, 0x6f, 0x6e, 0x2f, 0x65, 0x69, 0x6e, 0x73, 0x75, 0x6d, 0x2f, 0x45, 0x69, 
0x6e, 0x73, 0x75, 0x6d, 0x31, 0x33, 0x3b, 0x6d, 0x6f, 0x64, 0x65, 0x6c, 0x2f, 0x6d, 0x75, 0x6c, 0x74, 0x69, 0x5f, 0x68, 0x65, 0x61, 0x64, 0x5f, 0x61, 0x74, 0x74, 0x65, 0x6e, 0x74, 0x69, 0x6f, 
0x6e, 0x2f, 0x65, 0x69, 0x6e, 0x73, 0x75, 0x6d, 0x2f, 0x45, 0x69, 0x6e, 0x73, 0x75, 0x6d, 0x31, 0x34, 0x31, 0x00, 0x00, 0x03, 0x00, 0x00, 0x00, 0x01, 0x00, 0x00, 0x00, 0x02, 0x00, 0x00, 0x00, 
0x08, 0x00, 0x00, 0x00, 0x2a, 0xf1, 0xff, 0xff, 0x00, 0x00, 0x00, 0x01, 0x14, 0x00, 0x00, 0x00, 0x30, 0x00, 0x00, 0x00, 0x21, 0x00, 0x00, 0x00, 0x00, 0x00, 0x00, 0x09, 0x80, 0x00, 0x00, 0x00, 
0x14, 0xf1, 0xff, 0xff, 0x08, 0x00, 0x00, 0x00, 0x10, 0x00, 0x00, 0x00, 0x01, 0x00, 0x00, 0x00, 0xee, 0xff, 0xff, 0xff, 0xff, 0xff, 0xff, 0xff, 0x01, 0x00, 0x00, 0x00, 0xc4, 0x23, 0xba, 0x3c, 
0x55, 0x00, 0x00, 0x00, 0x6d, 0x6f, 0x64, 0x65, 0x6c, 0x2f, 0x6d, 0x75, 0x6c, 0x74, 0x69, 0x5f, 0x68, 0x65, 0x61, 0x64, 0x5f, 0x61, 0x74, 0x74, 0x65, 0x6e, 0x74, 0x69, 0x6f, 0x6e, 0x2f, 0x65, 
0x69, 0x6e, 0x73, 0x75, 0x6d, 0x2f, 0x45, 0x69, 0x6e, 0x73, 0x75, 0x6d, 0x31, 0x33, 0x3b, 0x6d, 0x6f, 0x64, 0x65, 0x6c, 0x2f, 0x6d, 0x75, 0x6c, 0x74, 0x69, 0x5f, 0x68, 0x65, 0x61, 0x64, 0x5f, 
0x61, 0x74, 0x74, 0x65, 0x6e, 0x74, 0x69, 0x6f, 0x6e, 0x2f, 0x65, 0x69, 0x6e, 0x73, 0x75, 0x6d, 0x2f, 0x45, 0x69, 0x6e, 0x73, 0x75, 0x6d, 0x31, 0x34, 0x00, 0x00, 0x00, 0x03, 0x00, 0x00, 0x00, 
0x01, 0x00, 0x00, 0x00, 0x02, 0x00, 0x00, 0x00, 0x08, 0x00, 0x00, 0x00, 0xd2, 0xf1, 0xff, 0xff, 0x00, 0x00, 0x00, 0x01, 0x14, 0x00, 0x00, 0x00, 0x34, 0x00, 0x00, 0x00, 0x20, 0x00, 0x00, 0x00, 
0x00, 0x00, 0x00, 0x09, 0x58, 0x00, 0x00, 0x00, 0xbc, 0xf1, 0xff, 0xff, 0x08, 0x00, 0x00, 0x00, 0x14, 0x00, 0x00, 0x00, 0x01, 0x00, 0x00, 0x00, 0xee, 0xff, 0xff, 0xff, 0xff, 0xff, 0xff, 0xff, 
0x00, 0x00, 0x00, 0x00, 0x01, 0x00, 0x00, 0x00, 0xc4, 0x23, 0xba, 0x3c, 0x2a, 0x00, 0x00, 0x00, 0x6d, 0x6f, 0x64, 0x65, 0x6c, 0x2f, 0x6d, 0x75, 0x6c, 0x74, 0x69, 0x5f, 0x68, 0x65, 0x61, 0x64, 
0x5f, 0x61, 0x74, 0x74, 0x65, 0x6e, 0x74, 0x69, 0x6f, 0x6e, 0x2f, 0x65, 0x69, 0x6e, 0x73, 0x75, 0x6d, 0x2f, 0x45, 0x69, 0x6e, 0x73, 0x75, 0x6d, 0x31, 0x32, 0x00, 0x00, 0x03, 0x00, 0x00, 0x00, 
0x02, 0x00, 0x00, 0x00, 0x02, 0x00, 0x00, 0x00, 0x08, 0x00, 0x00, 0x00, 0x52, 0xf2, 0xff, 0xff, 0x00, 0x00, 0x00, 0x01, 0x14, 0x00, 0x00, 0x00, 0x30, 0x00, 0x00, 0x00, 0x1f, 0x00, 0x00, 0x00, 
0x00, 0x00, 0x00, 0x09, 0x80, 0x00, 0x00, 0x00, 0x3c, 0xf2, 0xff, 0xff, 0x08, 0x00, 0x00, 0x00, 0x10, 0x00, 0x00, 0x00, 0x01, 0x00, 0x00, 0x00, 0xd3, 0xff, 0xff, 0xff, 0xff, 0xff, 0xff, 0xff, 
0x01, 0x00, 0x00, 0x00, 0x14, 0x55, 0xc4, 0x3c, 0x56, 0x00, 0x00, 0x00, 0x6d, 0x6f, 0x64, 0x65, 0x6c, 0x2f, 0x6d, 0x75, 0x6c, 0x74, 0x69, 0x5f, 0x68, 0x65, 0x61, 0x64, 0x5f, 0x61, 0x74, 0x74, 
0x65, 0x6e, 0x74, 0x69, 0x6f, 0x6e, 0x2f, 0x65, 0x69, 0x6e, 0x73, 0x75, 0x6d, 0x2f, 0x45, 0x69, 0x6e, 0x73, 0x75, 0x6d, 0x31, 0x30, 0x3b, 0x6d, 0x6f, 0x64, 0x65, 0x6c, 0x2f, 0x6d, 0x75, 0x6c, 
0x74, 0x69, 0x5f, 0x68, 0x65, 0x61, 0x64, 0x5f, 0x61, 0x74, 0x74, 0x65, 0x6e, 0x74, 0x69, 0x6f, 0x6e, 0x2f, 0x65, 0x69, 0x6e, 0x73, 0x75, 0x6d, 0x2f, 0x45, 0x69, 0x6e, 0x73, 0x75, 0x6d, 0x31, 
0x31, 0x31, 0x00, 0x00, 0x03, 0x00, 0x00, 0x00, 0x01, 0x00, 0x00, 0x00, 0x04, 0x00, 0x00, 0x00, 0x02, 0x00, 0x00, 0x00, 0xfa, 0xf2, 0xff, 0xff, 0x00, 0x00, 0x00, 0x01, 0x14, 0x00, 0x00, 0x00, 
0x30, 0x00, 0x00, 0x00, 0x1e, 0x00, 0x00, 0x00, 0x00, 0x00, 0x00, 0x09, 0x80, 0x00, 0x00, 0x00, 0xe4, 0xf2, 0xff, 0xff, 0x08, 0x00, 0x00, 0x00, 0x10, 0x00, 0x00, 0x00, 0x01, 0x00, 0x00, 0x00, 
0xd3, 0xff, 0xff, 0xff, 0xff, 0xff, 0xff, 0xff, 0x01, 0x00, 0x00, 0x00, 0x14, 0x55, 0xc4, 0x3c, 0x55, 0x00, 0x00, 0x00, 0x6d, 0x6f, 0x64, 0x65, 0x6c, 0x2f, 0x6d, 0x75, 0x6c, 0x74, 0x69, 0x5f, 
0x68, 0x65, 0x61, 0x64, 0x5f, 0x61, 0x74, 0x74, 0x65, 0x6e, 0x74, 0x69, 0x6f, 0x6e, 0x2f, 0x65, 0x69, 0x6e, 0x73, 0x75, 0x6d, 0x2f, 0x45, 0x69, 0x6e, 0x73, 0x75, 0x6d, 0x31, 0x30, 0x3b, 0x6d, 
0x6f, 0x64, 0x65, 0x6c, 0x2f, 0x6d, 0x75, 0x6c, 0x74, 0x69, 0x5f, 0x68, 0x65, 0x61, 0x64, 0x5f, 0x61, 0x74, 0x74, 0x65, 0x6e, 0x74, 0x69, 0x6f, 0x6e, 0x2f, 0x65, 0x69, 0x6e, 0x73, 0x75, 0x6d, 
0x2f, 0x45, 0x69, 0x6e, 0x73, 0x75, 0x6d, 0x31, 0x31, 0x00, 0x00, 0x00, 0x03, 0x00, 0x00, 0x00, 0x01, 0x00, 0x00, 0x00, 0x04, 0x00, 0x00, 0x00, 0x02, 0x00, 0x00, 0x00, 0xa2, 0xf3, 0xff, 0xff, 
0x00, 0x00, 0x00, 0x01, 0x14, 0x00, 0x00, 0x00, 0x34, 0x00, 0x00, 0x00, 0x1d, 0x00, 0x00, 0x00, 0x00, 0x00, 0x00, 0x09, 0x58, 0x00, 0x00, 0x00, 0x8c, 0xf3, 0xff, 0xff, 0x08, 0x00, 0x00, 0x00, 
0x14, 0x00, 0x00, 0x00, 0x01, 0x00, 0x00, 0x00, 0xd3, 0xff, 0xff, 0xff, 0xff, 0xff, 0xff, 0xff, 0x00, 0x00, 0x00, 0x00, 0x01, 0x00, 0x00, 0x00, 0x14, 0x55, 0xc4, 0x3c, 0x29, 0x00, 0x00, 0x00, 
0x6d, 0x6f, 0x64, 0x65, 0x6c, 0x2f, 0x6d, 0x75, 0x6c, 0x74, 0x69, 0x5f, 0x68, 0x65, 0x61, 0x64, 0x5f, 0x61, 0x74, 0x74, 0x65, 0x6e, 0x74, 0x69, 0x6f, 0x6e, 0x2f, 0x65, 0x69, 0x6e, 0x73, 0x75, 
0x6d, 0x2f, 0x45, 0x69, 0x6e, 0x73, 0x75, 0x6d, 0x39, 0x00, 0x00, 0x00, 0x03, 0x00, 0x00, 0x00, 0x02, 0x00, 0x00, 0x00, 0x04, 0x00, 0x00, 0x00, 0x02, 0x00, 0x00, 0x00, 0x22, 0xf4, 0xff, 0xff, 
0x00, 0x00, 0x00, 0x01, 0x14, 0x00, 0x00, 0x00, 0x30, 0x00, 0x00, 0x00, 0x1c, 0x00, 0x00, 0x00, 0x00, 0x00, 0x00, 0x09, 0x54, 0x00, 0x00, 0x00, 0x0c, 0xf4, 0xff, 0xff, 0x08, 0x00, 0x00, 0x00, 
0x10, 0x00, 0x00, 0x00, 0x01, 0x00, 0x00, 0x00, 0xee, 0xff, 0xff, 0xff, 0xff, 0xff, 0xff, 0xff, 0x01, 0x00, 0x00, 0x00, 0xc4, 0x23, 0xba, 0x3c, 0x29, 0x00, 0x00, 0x00, 0x6d, 0x6f, 0x64, 0x65, 
0x6c, 0x2f, 0x6d, 0x75, 0x6c, 0x74, 0x69, 0x5f, 0x68, 0x65, 0x61, 0x64, 0x5f, 0x61, 0x74, 0x74, 0x65, 0x6e, 0x74, 0x69, 0x6f, 0x6e, 0x2f, 0x65, 0x69, 0x6e, 0x73, 0x75, 0x6d, 0x2f, 0x45, 0x69, 
0x6e, 0x73, 0x75, 0x6d, 0x38, 0x00, 0x00, 0x00, 0x04, 0x00, 0x00, 0x00, 0x01, 0x00, 0x00, 0x00, 0x02, 0x00, 0x00, 0x00, 0x02, 0x00, 0x00, 0x00, 0x08, 0x00, 0x00, 0x00, 0xa2, 0xf4, 0xff, 0xff, 
0x00, 0x00, 0x00, 0x01, 0x14, 0x00, 0x00, 0x00, 0x30, 0x00, 0x00, 0x00, 0x1b, 0x00, 0x00, 0x00, 0x00, 0x00, 0x00, 0x09, 0x54, 0x00, 0x00, 0x00, 0x8c, 0xf4, 0xff, 0xff, 0x08, 0x00, 0x00, 0x00, 
0x10, 0x00, 0x00, 0x00, 0x01, 0x00, 0x00, 0x00, 0xd3, 0xff, 0xff, 0xff, 0xff, 0xff, 0xff, 0xff, 0x01, 0x00, 0x00, 0x00, 0x14, 0x55, 0xc4, 0x3c, 0x29, 0x00, 0x00, 0x00, 0x6d, 0x6f, 0x64, 0x65, 
0x6c, 0x2f, 0x6d, 0x75, 0x6c, 0x74, 0x69, 0x5f, 0x68, 0x65, 0x61, 0x64, 0x5f, 0x61, 0x74, 0x74, 0x65, 0x6e, 0x74, 0x69, 0x6f, 0x6e, 0x2f, 0x65, 0x69, 0x6e, 0x73, 0x75, 0x6d, 0x2f, 0x45, 0x69, 
0x6e, 0x73, 0x75, 0x6d, 0x37, 0x00, 0x00, 0x00, 0x04, 0x00, 0x00, 0x00, 0x01, 0x00, 0x00, 0x00, 0x02, 0x00, 0x00, 0x00, 0x04, 0x00, 0x00, 0x00, 0x02, 0x00, 0x00, 0x00, 0x22, 0xf5, 0xff, 0xff, 
0x00, 0x00, 0x00, 0x01, 0x14, 0x00, 0x00, 0x00, 0x34, 0x00, 0x00, 0x00, 0x1a, 0x00, 0x00, 0x00, 0x00, 0x00, 0x00, 0x09, 0x9c, 0x00, 0x00, 0x00, 0x0c, 0xf5, 0xff, 0xff, 0x08, 0x00, 0x00, 0x00, 
0x14, 0x00, 0x00, 0x00, 0x01, 0x00, 0x00, 0x00, 0xee, 0xff, 0xff, 0xff, 0xff, 0xff, 0xff, 0xff, 0x00, 0x00, 0x00, 0x00, 0x01, 0x00, 0x00, 0x00, 0xc4, 0x23, 0xba, 0x3c, 0x6f, 0x00, 0x00, 0x00, 
0x6d, 0x6f, 0x64, 0x65, 0x6c, 0x2f, 0x6d, 0x75, 0x6c, 0x74, 0x69, 0x5f, 0x68, 0x65, 0x61, 0x64, 0x5f, 0x61, 0x74, 0x74, 0x65, 0x6e, 0x74, 0x69, 0x6f, 0x6e, 0x2f, 0x4d, 0x75, 0x6c, 0x3b, 0x6d, 
0x6f, 0x64, 0x65, 0x6c, 0x2f, 0x6d, 0x75, 0x6c, 0x74, 0x69, 0x5f, 0x68, 0x65, 0x61, 0x64, 0x5f, 0x61, 0x74, 0x74, 0x65, 0x6e, 0x74, 0x69, 0x6f, 0x6e, 0x2f, 0x71, 0x75, 0x65, 0x72, 0x79, 0x2f, 
0x65, 0x69, 0x6e, 0x73, 0x75, 0x6d, 0x2f, 0x45, 0x69, 0x6e, 0x73, 0x75, 0x6d, 0x3b, 0x6d, 0x6f, 0x64, 0x65, 0x6c, 0x2f, 0x6d, 0x75, 0x6c, 0x74, 0x69, 0x5f, 0x68, 0x65, 0x61, 0x64, 0x5f, 0x61, 
0x74, 0x74, 0x65, 0x6e, 0x74, 0x69, 0x6f, 0x6e, 0x2f, 0x4d, 0x75, 0x6c, 0x2f, 0x79, 0x31, 0x00, 0x04, 0x00, 0x00, 0x00, 0x01, 0x00, 0x00, 0x00, 0x08, 0x00, 0x00, 0x00, 0x02, 0x00, 0x00, 0x00, 
0x02, 0x00, 0x00, 0x00, 0xea, 0xf5, 0xff, 0xff, 0x00, 0x00, 0x00, 0x01, 0x14, 0x00, 0x00, 0x00, 0x34, 0x00, 0x00, 0x00, 0x19, 0x00, 0x00, 0x00, 0x00, 0x00, 0x00, 0x09, 0x9c, 0x00, 0x00, 0x00, 
0xd4, 0xf5, 0xff, 0xff, 0x08, 0x00, 0x00, 0x00, 0x14, 0x00, 0x00, 0x00, 0x01, 0x00, 0x00, 0x00, 0xee, 0xff, 0xff, 0xff, 0xff, 0xff, 0xff, 0xff, 0x00, 0x00, 0x00, 0x00, 0x01, 0x00, 0x00, 0x00, 
0xc4, 0x23, 0xba, 0x3c, 0x6e, 0x00, 0x00, 0x00, 0x6d, 0x6f, 0x64, 0x65, 0x6c, 0x2f, 0x6d, 0x75, 0x6c, 0x74, 0x69, 0x5f, 0x68, 0x65, 0x61, 0x64, 0x5f, 0x61, 0x74, 0x74, 0x65, 0x6e, 0x74, 0x69, 
0x6f, 0x6e, 0x2f, 0x71, 0x75, 0x65, 0x72, 0x79, 0x2f, 0x65, 0x69, 0x6e, 0x73, 0x75, 0x6d, 0x2f, 0x45, 0x69, 0x6e, 0x73, 0x75, 0x6d, 0x3b, 0x6d, 0x6f, 0x64, 0x65, 0x6c, 0x2f, 0x6d, 0x75, 0x6c, 
0x74, 0x69, 0x5f, 0x68, 0x65, 0x61, 0x64, 0x5f, 0x61, 0x74, 0x74, 0x65, 0x6e, 0x74, 0x69, 0x6f, 0x6e, 0x2f, 0x4d, 0x75, 0x6c, 0x3b, 0x6d, 0x6f, 0x64, 0x65, 0x6c, 0x2f, 0x6d, 0x75, 0x6c, 0x74, 
0x69, 0x5f, 0x68, 0x65, 0x61, 0x64, 0x5f, 0x61, 0x74, 0x74, 0x65, 0x6e, 0x74, 0x69, 0x6f, 0x6e, 0x2f, 0x4d, 0x75, 0x6c, 0x2f, 0x79, 0x00, 0x00, 0x02, 0x00, 0x00, 0x00, 0x08, 0x00, 0x00, 0x00, 
0x04, 0x00, 0x00, 0x00, 0xaa, 0xf6, 0xff, 0xff, 0x00, 0x00, 0x00, 0x01, 0x14, 0x00, 0x00, 0x00, 0x34, 0x00, 0x00, 0x00, 0x18, 0x00, 0x00, 0x00, 0x00, 0x00, 0x00, 0x09, 0x5c, 0x00, 0x00, 0x00, 
0x94, 0xf6, 0xff, 0xff, 0x08, 0x00, 0x00, 0x00, 0x14, 0x00, 0x00, 0x00, 0x01, 0x00, 0x00, 0x00, 0xd3, 0xff, 0xff, 0xff, 0xff, 0xff, 0xff, 0xff, 0x00, 0x00, 0x00, 0x00, 0x01, 0x00, 0x00, 0x00, 
0x14, 0x55, 0xc4, 0x3c, 0x2d, 0x00, 0x00, 0x00, 0x6d, 0x6f, 0x64, 0x65, 0x6c, 0x2f, 0x6d, 0x75, 0x6c, 0x74, 0x69, 0x5f, 0x68, 0x65, 0x61, 0x64, 0x5f, 0x61, 0x74, 0x74, 0x65, 0x6e, 0x74, 0x69, 
0x6f, 0x6e, 0x2f, 0x6b, 0x65, 0x79, 0x2f, 0x65, 0x69, 0x6e, 0x73, 0x75, 0x6d, 0x2f, 0x45, 0x69, 0x6e, 0x73, 0x75, 0x6d, 0x34, 0x00, 0x00, 0x00, 0x04, 0x00, 0x00, 0x00, 0x01, 0x00, 0x00, 0x00, 
0x04, 0x00, 0x00, 0x00, 0x02, 0x00, 0x00, 0x00, 0x02, 0x00, 0x00, 0x00, 0x32, 0xf7, 0xff, 0xff, 0x00, 0x00, 0x00, 0x01, 0x14, 0x00, 0x00, 0x00, 0x34, 0x00, 0x00, 0x00, 0x17, 0x00, 0x00, 0x00, 
0x00, 0x00, 0x00, 0x09, 0x5c, 0x00, 0x00, 0x00, 0x1c, 0xf7, 0xff, 0xff, 0x08, 0x00, 0x00, 0x00, 0x14, 0x00, 0x00, 0x00, 0x01, 0x00, 0x00, 0x00, 0xd3, 0xff, 0xff, 0xff, 0xff, 0xff, 0xff, 0xff, 
0x00, 0x00, 0x00, 0x00, 0x01, 0x00, 0x00, 0x00, 0x14, 0x55, 0xc4, 0x3c, 0x2d, 0x00, 0x00, 0x00, 0x6d, 0x6f, 0x64, 0x65, 0x6c, 0x2f, 0x6d, 0x75, 0x6c, 0x74, 0x69, 0x5f, 0x68, 0x65, 0x61, 0x64, 
0x5f, 0x61, 0x74, 0x74, 0x65, 0x6e, 0x74, 0x69, 0x6f, 0x6e, 0x2f, 0x6b, 0x65, 0x79, 0x2f, 0x65, 0x69, 0x6e, 0x73, 0x75, 0x6d, 0x2f, 0x45, 0x69, 0x6e, 0x73, 0x75, 0x6d, 0x33, 0x00, 0x00, 0x00, 
0x02, 0x00, 0x00, 0x00, 0x04, 0x00, 0x00, 0x00, 0x04, 0x00, 0x00, 0x00, 0xb2, 0xf7, 0xff, 0xff, 0x00, 0x00, 0x00, 0x01, 0x14, 0x00, 0x00, 0x00, 0x34, 0x00, 0x00, 0x00, 0x16, 0x00, 0x00, 0x00, 
0x00, 0x00, 0x00, 0x09, 0x5c, 0x00, 0x00, 0x00, 0x9c, 0xf7, 0xff, 0xff, 0x08, 0x00, 0x00, 0x00, 0x14, 0x00, 0x00, 0x00, 0x01, 0x00, 0x00, 0x00, 0x00, 0x00, 0x00, 0x00, 0x00, 0x00, 0x00, 0x00, 
0x00, 0x00, 0x00, 0x00, 0x01, 0x00, 0x00, 0x00, 0x4c, 0x9b, 0x1c, 0x3b, 0x2d, 0x00, 0x00, 0x00, 0x6d, 0x6f, 0x64, 0x65, 0x6c, 0x2f, 0x6d, 0x75, 0x6c, 0x74, 0x69, 0x5f, 0x68, 0x65, 0x61, 0x64, 
0x5f, 0x61, 0x74, 0x74, 0x65, 0x6e, 0x74, 0x69, 0x6f, 0x6e, 0x2f, 0x6b, 0x65, 0x79, 0x2f, 0x65, 0x69, 0x6e, 0x73, 0x75, 0x6d, 0x2f, 0x45, 0x69, 0x6e, 0x73, 0x75, 0x6d, 0x32, 0x00, 0x00, 0x00, 
0x02, 0x00, 0x00, 0x00, 0x04, 0x00, 0x00, 0x00, 0x10, 0x00, 0x00, 0x00, 0x32, 0xf8, 0xff, 0xff, 0x00, 0x00, 0x00, 0x01, 0x14, 0x00, 0x00, 0x00, 0x34, 0x00, 0x00, 0x00, 0x15, 0x00, 0x00, 0x00, 
0x00, 0x00, 0x00, 0x09, 0x9c, 0x00, 0x00, 0x00, 0x1c, 0xf8, 0xff, 0xff, 0x08, 0x00, 0x00, 0x00, 0x14, 0x00, 0x00, 0x00, 0x01, 0x00, 0x00, 0x00, 0x00, 0x00, 0x00, 0x00, 0x00, 0x00, 0x00, 0x00, 
0x00, 0x00, 0x00, 0x00, 0x01, 0x00, 0x00, 0x00, 0xd6, 0x27, 0xde, 0x3a, 0x6e, 0x00, 0x00, 0x00, 0x6d, 0x6f, 0x64, 0x65, 0x6c, 0x2f, 0x6d, 0x75, 0x6c, 0x74, 0x69, 0x5f, 0x68, 0x65, 0x61, 0x64, 
0x5f, 0x61, 0x74, 0x74, 0x65, 0x6e, 0x74, 0x69, 0x6f, 0x6e, 0x2f, 0x4d, 0x75, 0x6c, 0x3b, 0x6d, 0x6f, 0x64, 0x65, 0x6c, 0x2f, 0x6d, 0x75, 0x6c, 0x74, 0x69, 0x5f, 0x68, 0x65, 0x61, 0x64, 0x5f, 
0x61, 0x74, 0x74, 0x65, 0x6e, 0x74, 0x69, 0x6f, 0x6e, 0x2f, 0x71, 0x75, 0x65, 0x72, 0x79, 0x2f, 0x65, 0x69, 0x6e, 0x73, 0x75, 0x6d, 0x2f, 0x45, 0x69, 0x6e, 0x73, 0x75, 0x6d, 0x3b, 0x6d, 0x6f, 
0x64, 0x65, 0x6c, 0x2f, 0x6d, 0x75, 0x6c, 0x74, 0x69, 0x5f, 0x68, 0x65, 0x61, 0x64, 0x5f, 0x61, 0x74, 0x74, 0x65, 0x6e, 0x74, 0x69, 0x6f, 0x6e, 0x2f, 0x4d, 0x75, 0x6c, 0x2f, 0x79, 0x00, 0x00, 
0x02, 0x00, 0x00, 0x00, 0x04, 0x00, 0x00, 0x00, 0x10, 0x00, 0x00, 0x00, 0xf2, 0xf8, 0xff, 0xff, 0x00, 0x00, 0x00, 0x01, 0x14, 0x00, 0x00, 0x00, 0x34, 0x00, 0x00, 0x00, 0x14, 0x00, 0x00, 0x00, 
0x00, 0x00, 0x00, 0x09, 0x5c, 0x00, 0x00, 0x00, 0xdc, 0xf8, 0xff, 0xff, 0x08, 0x00, 0x00, 0x00, 0x14, 0x00, 0x00, 0x00, 0x01, 0x00, 0x00, 0x00, 0x00, 0x00, 0x00, 0x00, 0x00, 0x00, 0x00, 0x00, 
0x00, 0x00, 0x00, 0x00, 0x01, 0x00, 0x00, 0x00, 0x70, 0xcb, 0x1d, 0x3b, 0x2e, 0x00, 0x00, 0x00, 0x6d, 0x6f, 0x64, 0x65, 0x6c, 0x2f, 0x6d, 0x75, 0x6c, 0x74, 0x69, 0x5f, 0x68, 0x65, 0x61, 0x64, 
0x5f, 0x61, 0x74, 0x74, 0x65, 0x6e, 0x74, 0x69, 0x6f, 0x6e, 0x2f, 0x76, 0x61, 0x6c, 0x75, 0x65, 0x2f, 0x65, 0x69, 0x6e, 0x73, 0x75, 0x6d, 0x2f, 0x45, 0x69, 0x6e, 0x73, 0x75, 0x6d, 0x00, 0x00, 
0x02, 0x00, 0x00, 0x00, 0x04, 0x00, 0x00, 0x00, 0x10, 0x00, 0x00, 0x00, 0x72, 0xf9, 0xff, 0xff, 0x00, 0x00, 0x00, 0x01, 0x14, 0x00, 0x00, 0x00, 0x30, 0x00, 0x00, 0x00, 0x13, 0x00, 0x00, 0x00, 
0x00, 0x00, 0x00, 0x09, 0x64, 0x00, 0x00, 0x00, 0x5c, 0xf9, 0xff, 0xff, 0x08, 0x00, 0x00, 0x00, 0x10, 0x00, 0x00, 0x00, 0x01, 0x00, 0x00, 0x00, 0x00, 0x00, 0x00, 0x00, 0x00, 0x00, 0x00, 0x00, 
0x01, 0x00, 0x00, 0x00, 0x1e, 0x78, 0x51, 0x3b, 0x3a, 0x00, 0x00, 0x00, 0x6d, 0x6f, 0x64, 0x65, 0x6c, 0x2f, 0x6d, 0x75, 0x6c, 0x74, 0x69, 0x5f, 0x68, 0x65, 0x61, 0x64, 0x5f, 0x61, 0x74, 0x74, 
0x65, 0x6e, 0x74, 0x69, 0x6f, 0x6e, 0x2f, 0x61, 0x74, 0x74, 0x65, 0x6e, 0x74, 0x69, 0x6f, 0x6e, 0x5f, 0x6f, 0x75, 0x74, 0x70, 0x75, 0x74, 0x2f, 0x65, 0x69, 0x6e, 0x73, 0x75, 0x6d, 0x2f, 0x45, 
0x69, 0x6e, 0x73, 0x75, 0x6d, 0x31, 0x00, 0x00, 0x02, 0x00, 0x00, 0x00, 0x10, 0x00, 0x00, 0x00, 0x04, 0x00, 0x00, 0x00, 0xfa, 0xf9, 0xff, 0xff, 0x00, 0x00, 0x00, 0x01, 0x14, 0x00, 0x00, 0x00, 
0x14, 0x00, 0x00, 0x00, 0x12, 0x00, 0x00, 0x00, 0x00, 0x00, 0x00, 0x02, 0x48, 0x00, 0x00, 0x00, 0xc8, 0xfa, 0xff, 0xff, 0x39, 0x00, 0x00, 0x00, 0x6d, 0x6f, 0x64, 0x65, 0x6c, 0x2f, 0x6d, 0x75, 
0x6c, 0x74, 0x69, 0x5f, 0x68, 0x65, 0x61, 0x64, 0x5f, 0x61, 0x74, 0x74, 0x65, 0x6e, 0x74, 0x69, 0x6f, 0x6e, 0x2f, 0x61, 0x74, 0x74, 0x65, 0x6e, 0x74, 0x69, 0x6f, 0x6e, 0x5f, 0x6f, 0x75, 0x74, 
0x70, 0x75, 0x74, 0x2f, 0x65, 0x69, 0x6e, 0x73, 0x75, 0x6d, 0x2f, 0x45, 0x69, 0x6e, 0x73, 0x75, 0x6d, 0x00, 0x00, 0x00, 0x01, 0x00, 0x00, 0x00, 0x03, 0x00, 0x00, 0x00, 0x62, 0xfa, 0xff, 0xff, 
0x00, 0x00, 0x00, 0x01, 0x14, 0x00, 0x00, 0x00, 0x14, 0x00, 0x00, 0x00, 0x11, 0x00, 0x00, 0x00, 0x00, 0x00, 0x00, 0x02, 0x38, 0x00, 0x00, 0x00, 0x30, 0xfb, 0xff, 0xff, 0x2b, 0x00, 0x00, 0x00, 
0x6d, 0x6f, 0x64, 0x65, 0x6c, 0x2f, 0x6d, 0x75, 0x6c, 0x74, 0x69, 0x5f, 0x68, 0x65, 0x61, 0x64, 0x5f, 0x61, 0x74, 0x74, 0x65, 0x6e, 0x74, 0x69, 0x6f, 0x6e, 0x2f, 0x65, 0x69, 0x6e, 0x73, 0x75, 
0x6d, 0x5f, 0x31, 0x2f, 0x45, 0x69, 0x6e, 0x73, 0x75, 0x6d, 0x31, 0x00, 0x01, 0x00, 0x00, 0x00, 0x02, 0x00, 0x00, 0x00, 0xba, 0xfa, 0xff, 0xff, 0x00, 0x00, 0x00, 0x01, 0x14, 0x00, 0x00, 0x00, 
0x14, 0x00, 0x00, 0x00, 0x10, 0x00, 0x00, 0x00, 0x00, 0x00, 0x00, 0x02, 0x38, 0x00, 0x00, 0x00, 0x88, 0xfb, 0xff, 0xff, 0x2a, 0x00, 0x00, 0x00, 0x6d, 0x6f, 0x64, 0x65, 0x6c, 0x2f, 0x6d, 0x75, 
0x6c, 0x74, 0x69, 0x5f, 0x68, 0x65, 0x61, 0x64, 0x5f, 0x61, 0x74, 0x74, 0x65, 0x6e, 0x74, 0x69, 0x6f, 0x6e, 0x2f, 0x65, 0x69, 0x6e, 0x73, 0x75, 0x6d, 0x5f, 0x31, 0x2f, 0x45, 0x69, 0x6e, 0x73, 
0x75, 0x6d, 0x00, 0x00, 0x01, 0x00, 0x00, 0x00, 0x04, 0x00, 0x00, 0x00, 0x12, 0xfb, 0xff, 0xff, 0x00, 0x00, 0x00, 0x01, 0x14, 0x00, 0x00, 0x00, 0x14, 0x00, 0x00, 0x00, 0x0f, 0x00, 0x00, 0x00, 
0x00, 0x00, 0x00, 0x02, 0x38, 0x00, 0x00, 0x00, 0xe0, 0xfb, 0xff, 0xff, 0x29, 0x00, 0x00, 0x00, 0x6d, 0x6f, 0x64, 0x65, 0x6c, 0x2f, 0x6d, 0x75, 0x6c, 0x74, 0x69, 0x5f, 0x68, 0x65, 0x61, 0x64, 
0x5f, 0x61, 0x74, 0x74, 0x65, 0x6e, 0x74, 0x69, 0x6f, 0x6e, 0x2f, 0x65, 0x69, 0x6e, 0x73, 0x75, 0x6d, 0x2f, 0x45, 0x69, 0x6e, 0x73, 0x75, 0x6d, 0x33, 0x00, 0x00, 0x00, 0x01, 0x00, 0x00, 0x00, 
0x02, 0x00, 0x00, 0x00, 0x6a, 0xfb, 0xff, 0xff, 0x00, 0x00, 0x00, 0x01, 0x14, 0x00, 0x00, 0x00, 0x14, 0x00, 0x00, 0x00, 0x0e, 0x00, 0x00, 0x00, 0x00, 0x00, 0x00, 0x02, 0x38, 0x00, 0x00, 0x00, 
0x38, 0xfc, 0xff, 0xff, 0x2b, 0x00, 0x00, 0x00, 0x6d, 0x6f, 0x64, 0x65, 0x6c, 0x2f, 0x6d, 0x75, 0x6c, 0x74, 0x69, 0x5f, 0x68, 0x65, 0x61, 0x64, 0x5f, 0x61, 0x74, 0x74, 0x65, 0x6e, 0x74, 0x69, 
0x6f, 0x6e, 0x2f, 0x65, 0x69, 0x6e, 0x73, 0x75, 0x6d, 0x5f, 0x31, 0x2f, 0x45, 0x69, 0x6e, 0x73, 0x75, 0x6d, 0x32, 0x00, 0x01, 0x00, 0x00, 0x00, 0x03, 0x00, 0x00, 0x00, 0xc2, 0xfb, 0xff, 0xff, 
0x00, 0x00, 0x00, 0x01, 0x14, 0x00, 0x00, 0x00, 0x14, 0x00, 0x00, 0x00, 0x0d, 0x00, 0x00, 0x00, 0x00, 0x00, 0x00, 0x02, 0x38, 0x00, 0x00, 0x00, 0x90, 0xfc, 0xff, 0xff, 0x29, 0x00, 0x00, 0x00, 
0x6d, 0x6f, 0x64, 0x65, 0x6c, 0x2f, 0x6d, 0x75, 0x6c, 0x74, 0x69, 0x5f, 0x68, 0x65, 0x61, 0x64, 0x5f, 0x61, 0x74, 0x74, 0x65, 0x6e, 0x74, 0x69, 0x6f, 0x6e, 0x2f, 0x65, 0x69, 0x6e, 0x73, 0x75, 
0x6d, 0x2f, 0x45, 0x69, 0x6e, 0x73, 0x75, 0x6d, 0x36, 0x00, 0x00, 0x00, 0x01, 0x00, 0x00, 0x00, 0x04, 0x00, 0x00, 0x00, 0x1a, 0xfc, 0xff, 0xff, 0x00, 0x00, 0x00, 0x01, 0x14, 0x00, 0x00, 0x00, 
0x14, 0x00, 0x00, 0x00, 0x0c, 0x00, 0x00, 0x00, 0x00, 0x00, 0x00, 0x02, 0x38, 0x00, 0x00, 0x00, 0xe8, 0xfc, 0xff, 0xff, 0x28, 0x00, 0x00, 0x00, 0x6d, 0x6f, 0x64, 0x65, 0x6c, 0x2f, 0x6d, 0x75, 
0x6c, 0x74, 0x69, 0x5f, 0x68, 0x65, 0x61, 0x64, 0x5f, 0x61, 0x74, 0x74, 0x65, 0x6e, 0x74, 0x69, 0x6f, 0x6e, 0x2f, 0x65, 0x69, 0x6e, 0x73, 0x75, 0x6d, 0x2f, 0x45, 0x69, 0x6e, 0x73, 0x75, 0x6d, 
0x00, 0x00, 0x00, 0x00, 0x01, 0x00, 0x00, 0x00, 0x04, 0x00, 0x00, 0x00, 0x72, 0xfc, 0xff, 0xff, 0x00, 0x00, 0x00, 0x01, 0x14, 0x00, 0x00, 0x00, 0x14, 0x00, 0x00, 0x00, 0x0b, 0x00, 0x00, 0x00, 
0x00, 0x00, 0x00, 0x02, 0x38, 0x00, 0x00, 0x00, 0x40, 0xfd, 0xff, 0xff, 0x2b, 0x00, 0x00, 0x00, 0x6d, 0x6f, 0x64, 0x65, 0x6c, 0x2f, 0x6d, 0x75, 0x6c, 0x74, 0x69, 0x5f, 0x68, 0x65, 0x61, 0x64, 
0x5f, 0x61, 0x74, 0x74, 0x65, 0x6e, 0x74, 0x69, 0x6f, 0x6e, 0x2f, 0x65, 0x69, 0x6e, 0x73, 0x75, 0x6d, 0x5f, 0x31, 0x2f, 0x45, 0x69, 0x6e, 0x73, 0x75, 0x6d, 0x33, 0x00, 0x01, 0x00, 0x00, 0x00, 
0x02, 0x00, 0x00, 0x00, 0xca, 0xfc, 0xff, 0xff, 0x00, 0x00, 0x00, 0x01, 0x14, 0x00, 0x00, 0x00, 0x14, 0x00, 0x00, 0x00, 0x0a, 0x00, 0x00, 0x00, 0x00, 0x00, 0x00, 0x02, 0x38, 0x00, 0x00, 0x00, 
0x98, 0xfd, 0xff, 0xff, 0x29, 0x00, 0x00, 0x00, 0x6d, 0x6f, 0x64, 0x65, 0x6c, 0x2f, 0x6d, 0x75, 0x6c, 0x74, 0x69, 0x5f, 0x68, 0x65, 0x61, 0x64, 0x5f, 0x61, 0x74, 0x74, 0x65, 0x6e, 0x74, 0x69, 
0x6f, 0x6e, 0x2f, 0x65, 0x69, 0x6e, 0x73, 0x75, 0x6d, 0x2f, 0x45, 0x69, 0x6e, 0x73, 0x75, 0x6d, 0x31, 0x00, 0x00, 0x00, 0x01, 0x00, 0x00, 0x00, 0x02, 0x00, 0x00, 0x00, 0x22, 0xfd, 0xff, 0xff, 
0x00, 0x00, 0x00, 0x01, 0x14, 0x00, 0x00, 0x00, 0x14, 0x00, 0x00, 0x00, 0x09, 0x00, 0x00, 0x00, 0x00, 0x00, 0x00, 0x02, 0x38, 0x00, 0x00, 0x00, 0xf0, 0xfd, 0xff, 0xff, 0x29, 0x00, 0x00, 0x00, 
0x6d, 0x6f, 0x64, 0x65, 0x6c, 0x2f, 0x6d, 0x75, 0x6c, 0x74, 0x69, 0x5f, 0x68, 0x65, 0x61, 0x64, 0x5f, 0x61, 0x74, 0x74, 0x65, 0x6e, 0x74, 0x69, 0x6f, 0x6e, 0x2f, 0x65, 0x69, 0x6e, 0x73, 0x75, 
0x6d, 0x2f, 0x45, 0x69, 0x6e, 0x73, 0x75, 0x6d, 0x32, 0x00, 0x00, 0x00, 0x01, 0x00, 0x00, 0x00, 0x03, 0x00, 0x00, 0x00, 0x7a, 0xfd, 0xff, 0xff, 0x00, 0x00, 0x00, 0x01, 0x14, 0x00, 0x00, 0x00, 
0x14, 0x00, 0x00, 0x00, 0x08, 0x00, 0x00, 0x00, 0x00, 0x00, 0x00, 0x02, 0x38, 0x00, 0x00, 0x00, 0x48, 0xfe, 0xff, 0xff, 0x2b, 0x00, 0x00, 0x00, 0x6d, 0x6f, 0x64, 0x65, 0x6c, 0x2f, 0x6d, 0x75, 
0x6c, 0x74, 0x69, 0x5f, 0x68, 0x65, 0x61, 0x64, 0x5f, 0x61, 0x74, 0x74, 0x65, 0x6e, 0x74, 0x69, 0x6f, 0x6e, 0x2f, 0x65, 0x69, 0x6e, 0x73, 0x75, 0x6d, 0x5f, 0x31, 0x2f, 0x45, 0x69, 0x6e, 0x73, 
0x75, 0x6d, 0x34, 0x00, 0x00, 0x00, 0x00, 0x00, 0xce, 0xfd, 0xff, 0xff, 0x00, 0x00, 0x00, 0x01, 0x14, 0x00, 0x00, 0x00, 0x14, 0x00, 0x00, 0x00, 0x07, 0x00, 0x00, 0x00, 0x00, 0x00, 0x00, 0x02, 
0x38, 0x00, 0x00, 0x00, 0x9c, 0xfe, 0xff, 0xff, 0x29, 0x00, 0x00, 0x00, 0x6d, 0x6f, 0x64, 0x65, 0x6c, 0x2f, 0x6d, 0x75, 0x6c, 0x74, 0x69, 0x5f, 0x68, 0x65, 0x61, 0x64, 0x5f, 0x61, 0x74, 0x74, 
0x65, 0x6e, 0x74, 0x69, 0x6f, 0x6e, 0x2f, 0x65, 0x69, 0x6e, 0x73, 0x75, 0x6d, 0x2f, 0x45, 0x69, 0x6e, 0x73, 0x75, 0x6d, 0x34, 0x00, 0x00, 0x00, 0x01, 0x00, 0x00, 0x00, 0x03, 0x00, 0x00, 0x00, 
0x26, 0xfe, 0xff, 0xff, 0x00, 0x00, 0x00, 0x01, 0x14, 0x00, 0x00, 0x00, 0x14, 0x00, 0x00, 0x00, 0x06, 0x00, 0x00, 0x00, 0x00, 0x00, 0x00, 0x02, 0x38, 0x00, 0x00, 0x00, 0xf4, 0xfe, 0xff, 0xff, 
0x29, 0x00, 0x00, 0x00, 0x6d, 0x6f, 0x64, 0x65, 0x6c, 0x2f, 0x6d, 0x75, 0x6c, 0x74, 0x69, 0x5f, 0x68, 0x65, 0x61, 0x64, 0x5f, 0x61, 0x74, 0x74, 0x65, 0x6e, 0x74, 0x69, 0x6f, 0x6e, 0x2f, 0x65, 
0x69, 0x6e, 0x73, 0x75, 0x6d, 0x2f, 0x45, 0x69, 0x6e, 0x73, 0x75, 0x6d, 0x35, 0x00, 0x00, 0x00, 0x01, 0x00, 0x00, 0x00, 0x04, 0x00, 0x00, 0x00, 0x7e, 0xfe, 0xff, 0xff, 0x00, 0x00, 0x00, 0x01, 
0x14, 0x00, 0x00, 0x00, 0x14, 0x00, 0x00, 0x00, 0x05, 0x00, 0x00, 0x00, 0x00, 0x00, 0x00, 0x02, 0x38, 0x00, 0x00, 0x00, 0x4c, 0xff, 0xff, 0xff, 0x2b, 0x00, 0x00, 0x00, 0x6d, 0x6f, 0x64, 0x65, 
0x6c, 0x2f, 0x6d, 0x75, 0x6c, 0x74, 0x69, 0x5f, 0x68, 0x65, 0x61, 0x64, 0x5f, 0x61, 0x74, 0x74, 0x65, 0x6e, 0x74, 0x69, 0x6f, 0x6e, 0x2f, 0x65, 0x69, 0x6e, 0x73, 0x75, 0x6d, 0x5f, 0x31, 0x2f, 
0x45, 0x69, 0x6e, 0x73, 0x75, 0x6d, 0x35, 0x00, 0x01, 0x00, 0x00, 0x00, 0x04, 0x00, 0x00, 0x00, 0xd6, 0xfe, 0xff, 0xff, 0x00, 0x00, 0x00, 0x01, 0x14, 0x00, 0x00, 0x00, 0x14, 0x00, 0x00, 0x00, 
0x04, 0x00, 0x00, 0x00, 0x00, 0x00, 0x00, 0x02, 0x3c, 0x00, 0x00, 0x00, 0xa4, 0xff, 0xff, 0xff, 0x2e, 0x00, 0x00, 0x00, 0x6d, 0x6f, 0x64, 0x65, 0x6c, 0x2f, 0x6d, 0x75, 0x6c, 0x74, 0x69, 0x5f, 
0x68, 0x65, 0x61, 0x64, 0x5f, 0x61, 0x74, 0x74, 0x65, 0x6e, 0x74, 0x69, 0x6f, 0x6e, 0x2f, 0x71, 0x75, 0x65, 0x72, 0x79, 0x2f, 0x65, 0x69, 0x6e, 0x73, 0x75, 0x6d, 0x2f, 0x45, 0x69, 0x6e, 0x73, 
0x75, 0x6d, 0x00, 0x00, 0x01, 0x00, 0x00, 0x00, 0x04, 0x00, 0x00, 0x00, 0x32, 0xff, 0xff, 0xff, 0x00, 0x00, 0x00, 0x01, 0x18, 0x00, 0x00, 0x00, 0x18, 0x00, 0x00, 0x00, 0x03, 0x00, 0x00, 0x00, 
0x00, 0x00, 0x00, 0x02, 0x40, 0x00, 0x00, 0x00, 0x04, 0x00, 0x04, 0x00, 0x04, 0x00, 0x00, 0x00, 0x2c, 0x00, 0x00, 0x00, 0x6d, 0x6f, 0x64, 0x65, 0x6c, 0x2f, 0x6d, 0x75, 0x6c, 0x74, 0x69, 0x5f, 
0x68, 0x65, 0x61, 0x64, 0x5f, 0x61, 0x74, 0x74, 0x65, 0x6e, 0x74, 0x69, 0x6f, 0x6e, 0x2f, 0x6b, 0x65, 0x79, 0x2f, 0x65, 0x69, 0x6e, 0x73, 0x75, 0x6d, 0x2f, 0x45, 0x69, 0x6e, 0x73, 0x75, 0x6d, 
0x00, 0x00, 0x00, 0x00, 0x01, 0x00, 0x00, 0x00, 0x04, 0x00, 0x00, 0x00, 0x92, 0xff, 0xff, 0xff, 0x00, 0x00, 0x00, 0x01, 0x14, 0x00, 0x00, 0x00, 0x30, 0x00, 0x00, 0x00, 0x02, 0x00, 0x00, 0x00, 
0x00, 0x00, 0x00, 0x09, 0x44, 0x00, 0x00, 0x00, 0x7c, 0xff, 0xff, 0xff, 0x08, 0x00, 0x00, 0x00, 0x10, 0x00, 0x00, 0x00, 0x01, 0x00, 0x00, 0x00, 0x7f, 0x00, 0x00, 0x00, 0x00, 0x00, 0x00, 0x00, 
0x01, 0x00, 0x00, 0x00, 0xe6, 0x10, 0x04, 0x3d, 0x1a, 0x00, 0x00, 0x00, 0x73, 0x65, 0x72, 0x76, 0x69, 0x6e, 0x67, 0x5f, 0x64, 0x65, 0x66, 0x61, 0x75, 0x6c, 0x74, 0x5f, 0x61, 0x72, 0x67, 0x73, 
0x5f, 0x30, 0x5f, 0x31, 0x3a, 0x30, 0x00, 0x00, 0x03, 0x00, 0x00, 0x00, 0x01, 0x00, 0x00, 0x00, 0x04, 0x00, 0x00, 0x00, 0x10, 0x00, 0x00, 0x00, 0x00, 0x00, 0x16, 0x00, 0x1c, 0x00, 0x18, 0x00, 
0x17, 0x00, 0x10, 0x00, 0x0c, 0x00, 0x08, 0x00, 0x00, 0x00, 0x00, 0x00, 0x00, 0x00, 0x07, 0x00, 0x16, 0x00, 0x00, 0x00, 0x00, 0x00, 0x00, 0x01, 0x20, 0x00, 0x00, 0x00, 0x3c, 0x00, 0x00, 0x00, 
0x01, 0x00, 0x00, 0x00, 0x00, 0x00, 0x00, 0x09, 0x50, 0x00, 0x00, 0x00, 0x0c, 0x00, 0x0c, 0x00, 0x00, 0x00, 0x00, 0x00, 0x08, 0x00, 0x04, 0x00, 0x0c, 0x00, 0x00, 0x00, 0x08, 0x00, 0x00, 0x00, 
0x10, 0x00, 0x00, 0x00, 0x01, 0x00, 0x00, 0x00, 0x7f, 0x00, 0x00, 0x00, 0x00, 0x00, 0x00, 0x00, 0x01, 0x00, 0x00, 0x00, 0x6a, 0xf1, 0x19, 0x3d, 0x18, 0x00, 0x00, 0x00, 0x73, 0x65, 0x72, 0x76, 
0x69, 0x6e, 0x67, 0x5f, 0x64, 0x65, 0x66, 0x61, 0x75, 0x6c, 0x74, 0x5f, 0x61, 0x72, 0x67, 0x73, 0x5f, 0x30, 0x3a, 0x30, 0x00, 0x00, 0x00, 0x00, 0x03, 0x00, 0x00, 0x00, 0x01, 0x00, 0x00, 0x00, 
0x08, 0x00, 0x00, 0x00, 0x10, 0x00, 0x00, 0x00, 0x06, 0x00, 0x00, 0x00, 0x7c, 0x00, 0x00, 0x00, 0x60, 0x00, 0x00, 0x00, 0x40, 0x00, 0x00, 0x00, 0x2c, 0x00, 0x00, 0x00, 0x18, 0x00, 0x00, 0x00, 
0x04, 0x00, 0x00, 0x00, 0xa8, 0xff, 0xff, 0xff, 0x19, 0x00, 0x00, 0x00, 0x02, 0x00, 0x00, 0x00, 0x00, 0x00, 0x00, 0x19, 0xb8, 0xff, 0xff, 0xff, 0x53, 0x00, 0x00, 0x00, 0x02, 0x00, 0x00, 0x00, 
0x00, 0x00, 0x00, 0x53, 0xc8, 0xff, 0xff, 0xff, 0x31, 0x00, 0x00, 0x00, 0x02, 0x00, 0x00, 0x00, 0x00, 0x00, 0x00, 0x31, 0xd8, 0xff, 0xff, 0xff, 0x27, 0x00, 0x00, 0x00, 0x02, 0x00, 0x00, 0x00, 
0x00, 0x00, 0x00, 0x27, 0x0c, 0x00, 0x0c, 0x00, 0x0b, 0x00, 0x00, 0x00, 0x00, 0x00, 0x04, 0x00, 0x0c, 0x00, 0x00, 0x00, 0x16, 0x00, 0x00, 0x00, 0x00, 0x00, 0x00, 0x16, 0x0c, 0x00, 0x10, 0x00, 
0x0f, 0x00, 0x00, 0x00, 0x08, 0x00, 0x04, 0x00, 0x0c, 0x00, 0x00, 0x00, 0x09, 0x00, 0x00, 0x00, 0x04, 0x00, 0x00, 0x00, 0x00, 0x00, 0x00, 0x09, };




const uint8_t* get_buffer(int index) {
    switch (index) {
        case 0:
            return model_data0;
        default:
            return nullptr;
    }
}

uint32_t get_num_buffers(void) 
{
	return 1;
}

} /* namespace model_nn */